{
  "token_to_id": {
    "六年": 0,
    "报告": 1,
    "创新": 2,
    "狠抓落实": 3,
    "董事长": 4,
    "会议": 5,
    "沈红群": 6,
    "良好": 7,
    "金科": 8,
    "开局": 9,
    "十五": 10,
    "核心": 11,
    "商密": 12,
    "全力": 13,
    "二月": 14,
    "守正": 15,
    "总经理": 16,
    "党委书记": 17,
    "维护": 18,
    "转述": 19,
    "内容": 20,
    "秘密": 21,
    "对外": 22,
    "重要": 23,
    "严禁": 24,
    "法律": 25,
    "公开": 26,
    "投资者": 27,
    "引用": 28,
    "有关": 29,
    "披露": 30,
    "权益": 31,
    "信息": 32,
    "保守": 33,
    "批准": 34,
    "发表": 35,
    "提示": 36,
    "规定": 37,
    "管理": 38,
    "企业": 39,
    "未经": 40,
    "特色": 41,
    "今天": 42,
    "内外部": 43,
    "任务": 44,
    "十四五": 45,
    "经济": 46,
    "二十": 47,
    "中央": 48,
    "精神": 49,
    "战略部署": 50,
    "围绕": 51,
    "部署": 52,
    "二十大": 53,
    "贯彻落实": 54,
    "坚持": 55,
    "下面": 56,
    "全面": 57,
    "同志": 58,
    "形势": 59,
    "主要": 60,
    "中国": 61,
    "成效": 62,
    "集团": 63,
    "期间": 64,
    "总结": 65,
    "思想": 66,
    "习近平": 67,
    "历次": 68,
    "社会主义": 69,
    "研判": 70,
    "全会精神": 71,
    "指导": 72,
    "紧密": 73,
    "时代": 74,
    "XX": 75,
    "策略": 76,
    "统筹": 77,
    "上一年": 78,
    "圆满完成": 79,
    "自有": 80,
    "金服": 81,
    "融通": 82,
    "攻坚": 83,
    "价值": 84,
    "两强": 85,
    "提升": 86,
    "总和": 87,
    "万户": 88,
    "集团公司": 89,
    "XX%": 90,
    "落实": 91,
    "超级": 92,
    "第一": 93,
    "账户": 94,
    "营业": 95,
    "支付": 96,
    "亿元": 97,
    "XXX": 98,
    "保持稳定": 99,
    "XXXX": 100,
    "用户": 101,
    "创造": 102,
    "目标": 103,
    "回顾": 104,
    "年初": 105,
    "突破": 106,
    "上下": 107,
    "同比": 108,
    "收入": 109,
    "净增": 110,
    "聚焦": 111,
    "全年": 112,
    "规模": 113,
    "两给": 114,
    "五步": 115,
    "绑卡": 116,
    "改革": 117,
    "增长": 118,
    "加快": 119,
    "APP": 120,
    "科技": 121,
    "一是": 122,
    "超前": 123,
    "净利润": 124,
    "全网": 125,
    "X%": 126,
    "主动": 127,
    "保障": 128,
    "体系": 129,
    "担当": 130,
    "扛起": 131,
    "服务": 132,
    "加速": 133,
    "意外": 134,
    "钱包": 135,
    "成为": 136,
    "有效": 137,
    "XXX%": 138,
    "家庭财产": 139,
    "助力": 140,
    "理赔": 141,
    "政策": 142,
    "家庭": 143,
    "促活": 144,
    "焕新": 145,
    "新增": 146,
    "防诈险": 147,
    "一站式": 148,
    "同开": 149,
    "联动": 150,
    "优选": 151,
    "资源": 152,
    "生命周期": 153,
    "模式": 154,
    "融合": 155,
    "健康": 156,
    "追损": 157,
    "构建": 158,
    "保险": 159,
    "利器": 160,
    "增收": 161,
    "小额": 162,
    "难题": 163,
    "责任": 164,
    "守机宝": 165,
    "融入": 166,
    "二是": 167,
    "强调": 168,
    "会员": 169,
    "央企": 170,
    "金融": 171,
    "场景": 172,
    "家宝": 173,
    "诈骗": 174,
    "优化": 175,
    "居家": 176,
    "省侧": 177,
    "拓展": 178,
    "升级": 179,
    "家人": 180,
    "公安": 181,
    "布局": 182,
    "成型": 183,
    "化解": 184,
    "合作": 185,
    "风控": 186,
    "能力": 187,
    "检测": 188,
    "智能": 189,
    "领域": 190,
    "科研": 191,
    "获批": 192,
    "成果": 193,
    "发布": 194,
    "一图": 195,
    "备案": 196,
    "计划": 197,
    "网信": 198,
    "推广": 199,
    "国内": 200,
    "三是": 201,
    "专项": 202,
    "两单": 203,
    "对内": 204,
    "合成": 205,
    "人脸": 206,
    "获评": 207,
    "国家": 208,
    "目录": 209,
    "研发": 210,
    "客服": 211,
    "最高级": 212,
    "科技部": 213,
    "建立": 214,
    "覆盖": 215,
    "灵犀": 216,
    "单位": 217,
    "迭代": 218,
    "累计": 219,
    "攻关": 220,
    "算法": 221,
    "雄安": 222,
    "深度": 223,
    "调用": 224,
    "营销": 225,
    "信通": 226,
    "入选": 227,
    "AI": 228,
    "技术": 229,
    "新区": 230,
    "推进": 231,
    "AIGC": 232,
    "模型": 233,
    "落地": 234,
    "优秀": 235,
    "首个": 236,
    "体是": 237,
    "万元": 238,
    "机构": 239,
    "应用": 240,
    "项科创": 241,
    "重点": 242,
    "创收": 243,
    "国资委": 244,
    "转化": 245,
    "万次": 246,
    "信用": 247,
    "产品": 248,
    "爱购": 249,
    "顺利": 250,
    "锁定": 251,
    "客户": 252,
    "融资难": 253,
    "5G": 254,
    "以旧换新": 255,
    "建强": 256,
    "渠道": 257,
    "融资": 258,
    "支撑": 259,
    "关键": 260,
    "号码": 261,
    "金币": 262,
    "有力": 263,
    "资产": 264,
    "ICT": 265,
    "四是": 266,
    "保理": 267,
    "全栈": 268,
    "两级": 269,
    "核心技术": 270,
    "图谱": 271,
    "清单": 272,
    "年度": 273,
    "挖掘": 274,
    "存增": 275,
    "运营": 276,
    "数智": 277,
    "标志性": 278,
    "积分": 279,
    "网龄": 280,
    "承接": 281,
    "商户": 282,
    "招投标": 283,
    "终端": 284,
    "全域": 285,
    "成长": 286,
    "痛点": 287,
    "存量": 288,
    "交易额": 289,
    "解决": 290,
    "商城": 291,
    "八大": 292,
    "团餐": 293,
    "万笔": 294,
    "外部": 295,
    "打造": 296,
    "一码": 297,
    "通刷": 298,
    "保拓": 299,
    "商旅": 300,
    "政企": 301,
    "体化": 302,
    "增值": 303,
    "成功": 304,
    "成员": 305,
    "一站": 306,
    "一体": 307,
    "元年": 308,
    "卡品": 309,
    "火车": 310,
    "出行": 311,
    "监控": 312,
    "机酒": 313,
    "餐景购": 314,
    "航空": 315,
    "省心": 316,
    "消费": 317,
    "团购": 318,
    "破零": 319,
    "聚合": 320,
    "休养": 321,
    "实施": 322,
    "通勤": 323,
    "移动": 324,
    "开创": 325,
    "付费": 326,
    "共享": 327,
    "订单": 328,
    "践诺": 329,
    "降超": 330,
    "发生": 331,
    "XPP": 332,
    "赋能": 333,
    "行业": 334,
    "闭环": 335,
    "体验": 336,
    "客户服务": 337,
    "率超": 338,
    "洞察": 339,
    "举措": 340,
    "投诉": 341,
    "完善": 342,
    "及时": 343,
    "领先": 344,
    "流程": 345,
    "功能": 346,
    "深化": 347,
    "委员会": 348,
    "跨省": 349,
    "溯源": 350,
    "整改": 351,
    "重大": 352,
    "荣誉称号": 353,
    "星级": 354,
    "专工单": 355,
    "品质": 356,
    "机制": 357,
    "员工": 358,
    "处理": 359,
    "五是": 360,
    "质量": 361,
    "三个": 362,
    "KEI": 363,
    "满意": 364,
    "数字": 365,
    "投比压": 366,
    "满意度": 367,
    "协会": 368,
    "旅程": 369,
    "工具": 370,
    "能效": 371,
    "薪酬": 372,
    "任期制": 373,
    "标签": 374,
    "分灶": 375,
    "经济效益": 376,
    "经责": 377,
    "打通": 378,
    "定价": 379,
    "业绩考核": 380,
    "海外": 381,
    "数据": 382,
    "规范": 383,
    "应收款": 384,
    "引进": 385,
    "六是": 386,
    "契约化": 387,
    "清理": 388,
    "指引": 389,
    "参与": 390,
    "认证": 391,
    "穿透": 392,
    "扎实": 393,
    "吃饭": 394,
    "人才交流": 395,
    "基础": 396,
    "筑牢": 397,
    "审计": 398,
    "质量检查": 399,
    "财经": 400,
    "向子": 401,
    "技能": 402,
    "高层次": 403,
    "搭建": 404,
    "用工": 405,
    "投资": 406,
    "收敛": 407,
    "循环": 408,
    "预付": 409,
    "行为": 410,
    "挂钩": 411,
    "人才": 412,
    "保等": 413,
    "核算": 414,
    "分析": 415,
    "激励": 416,
    "转型": 417,
    "拉通": 418,
    "开展": 419,
    "事实": 420,
    "管理体系": 421,
    "项目": 422,
    "提效": 423,
    "探索": 424,
    "总量": 425,
    "多条": 426,
    "见效": 427,
    "切实": 428,
    "整治": 429,
    "监督": 430,
    "决策": 431,
    "建设": 432,
    "贯彻": 433,
    "年轻干部": 434,
    "宣传": 435,
    "查摆": 436,
    "统战": 437,
    "沟通": 438,
    "电子": 439,
    "对接": 440,
    "电信": 441,
    "指标": 442,
    "清风": 443,
    "汇聚": 444,
    "背景": 445,
    "反馈": 446,
    "八项": 447,
    "人次": 448,
    "考核": 449,
    "实践": 450,
    "从严治党": 451,
    "申报": 452,
    "运用": 453,
    "结题": 454,
    "平台": 455,
    "网证": 456,
    "热情": 457,
    "圆满": 458,
    "效能": 459,
    "法治": 460,
    "结构": 461,
    "党风": 462,
    "内部": 463,
    "创建": 464,
    "教育": 465,
    "党中央": 466,
    "经商": 467,
    "安全": 468,
    "形式主义": 469,
    "销号": 470,
    "公文": 471,
    "检查": 472,
    "减半": 473,
    "经历": 474,
    "岗区": 475,
    "质效": 476,
    "倾心": 477,
    "试点": 478,
    "天零": 479,
    "团结奋进": 480,
    "动态": 481,
    "奋斗": 482,
    "党建": 483,
    "故障": 484,
    "架起": 485,
    "专业": 486,
    "督查": 487,
    "劳动竞赛": 488,
    "巡视": 489,
    "引领": 490,
    "急难险重": 491,
    "制度": 492,
    "压降": 493,
    "焕然一新": 494,
    "学习": 495,
    "减负": 496,
    "七是": 497,
    "画好": 498,
    "走深": 499,
    "深入": 500,
    "社区": 501,
    "行动": 502,
    "激发": 503,
    "党业": 504,
    "排查": 505,
    "领导": 506,
    "形态": 507,
    "身份": 508,
    "办法": 509,
    "新兴": 510,
    "持续": 511,
    "纵深": 512,
    "比近": 513,
    "基层": 514,
    "二类": 515,
    "身份证": 516,
    "议题": 517,
    "公务": 518,
    "公共服务": 519,
    "力量": 520,
    "双压": 521,
    "制定": 522,
    "考评": 523,
    "政风": 524,
    "群团": 525,
    "桥梁": 526,
    "走实": 527,
    "回避": 528,
    "四中全会": 529,
    "治理": 530,
    "职代会": 531,
    "干部": 532,
    "同心圆": 533,
    "筑基": 534,
    "民主": 535,
    "二种": 536,
    "数量": 537,
    "四个": 538,
    "任职": 539,
    "首次": 540,
    "根本": 541,
    "谋划": 542,
    "感谢": 543,
    "战略": 544,
    "无私奉献": 545,
    "兄弟": 546,
    "管理层": 547,
    "付出": 548,
    "取得": 549,
    "离不开": 550,
    "鼎力支持": 551,
    "全体": 552,
    "致以": 553,
    "得益于": 554,
    "董事会": 555,
    "家属": 556,
    "凝聚": 557,
    "我谨": 558,
    "坚强": 559,
    "衷心": 560,
    "公司党委": 561,
    "辛勤": 562,
    "在于": 563,
    "崇高": 564,
    "代表": 565,
    "科学": 566,
    "敬意": 567,
    "成绩": 568,
    "作用": 569,
    "脱节": 570,
    "精益": 571,
    "商业模式": 572,
    "精气神": 573,
    "动能": 574,
    "增强": 575,
    "协同": 576,
    "明文": 577,
    "同时": 578,
    "不少": 579,
    "操作": 580,
    "创业": 581,
    "推动": 582,
    "清醒认识": 583,
    "访问": 584,
    "需调": 585,
    "管控": 586,
    "资源整合": 587,
    "不准": 588,
    "突出": 589,
    "组织": 590,
    "不全": 591,
    "数据中心": 592,
    "违规": 593,
    "存在": 594,
    "有待": 595,
    "加强": 596,
    "生产关系": 597,
    "不严": 598,
    "责任制": 599,
    "不足": 600,
    "存储": 601,
    "格局": 602,
    "利润": 603,
    "充分": 604,
    "留存": 605,
    "资源配置": 606,
    "跟不上": 607,
    "挑战": 608,
    "不够": 609,
    "分级": 610,
    "面临": 611,
    "分类": 612,
    "干事": 613,
    "发挥": 614,
    "最大": 615,
    "分期": 616,
    "高质量": 617,
    "砥砺": 618,
    "一条": 619,
    "获得": 620,
    "经受": 621,
    "五年": 622,
    "路径": 623,
    "赛道": 624,
    "第二": 625,
    "考验": 626,
    "线下": 627,
    "疾步": 628,
    "高速成长": 629,
    "全国": 630,
    "世纪": 631,
    "开启": 632,
    "奋进": 633,
    "保险业务": 634,
    "疫情": 635,
    "专业化": 636,
    "评价": 637,
    "企业资质": 638,
    "通信": 639,
    "经营": 640,
    "收官": 641,
    "高新": 642,
    "成就": 643,
    "迈向": 644,
    "单一": 645,
    "时期": 646,
    "扩展": 647,
    "前行": 648,
    "勇毅": 649,
    "建成": 650,
    "日益": 651,
    "首批": 652,
    "系统": 653,
    "一等奖": 654,
    "认定": 655,
    "顺利完成": 656,
    "科创": 657,
    "及国": 658,
    "科技进步": 659,
    "实力": 660,
    "承担": 661,
    "三首": 662,
    "迁移": 663,
    "包解": 664,
    "权威认证": 665,
    "专利": 666,
    "信息安全": 667,
    "跻身": 668,
    "数据管理": 669,
    "专直": 670,
    "防控": 671,
    "安全事故": 672,
    "数据安全": 673,
    "技防": 674,
    "风险": 675,
    "自主": 676,
    "国产化": 677,
    "一体化": 678,
    "改造": 679,
    "前六": 680,
    "为基": 681,
    "金融风险": 682,
    "智防": 683,
    "人防": 684,
    "可控": 685,
    "卓越": 686,
    "专家": 687,
    "振兴": 688,
    "社会": 689,
    "负责人": 690,
    "SIM": 691,
    "骨干": 692,
    "脱颖而出": 693,
    "乡村": 694,
    "十百千万": 695,
    "职级": 696,
    "优秀人才": 697,
    "水平": 698,
    "网络": 699,
    "钱袋子": 700,
    "见行": 701,
    "各类": 702,
    "先进典型": 703,
    "彰显": 704,
    "守住": 705,
    "青年": 706,
    "打击": 707,
    "网络安全": 708,
    "宽广": 709,
    "中层": 710,
    "舞台": 711,
    "工程师": 712,
    "稳步": 713,
    "雁阵": 714,
    "晋升": 715,
    "团队": 716,
    "岗位": 717,
    "双碳": 718,
    "普惠": 719,
    "炼金": 720,
    "福利": 721,
    "走上": 722,
    "群众": 723,
    "壮大": 724,
    "实干": 725,
    "发力": 726,
    "并存": 727,
    "安排": 728,
    "现代化": 729,
    "基本": 730,
    "很多": 731,
    "机遇": 732,
    "擘画": 733,
    "未来": 734,
    "指导方针": 735,
    "一系列": 736,
    "明确": 737,
    "确保": 738,
    "关键时期": 739,
    "夯实": 740,
    "提出": 741,
    "蓝图": 742,
    "息息相关": 743,
    "首要任务": 744,
    "这一": 745,
    "实体": 746,
    "抓住": 747,
    "产业": 748,
    "基础设施": 749,
    "承载": 750,
    "依托": 751,
    "范畴": 752,
    "难得": 753,
    "生态": 754,
    "进一步": 755,
    "作为": 756,
    "新型": 757,
    "交易": 758,
    "主业": 759,
    "来说": 760,
    "资金": 761,
    "不可或缺": 762,
    "差异化": 763,
    "护城河": 764,
    "环节": 765,
    "体等": 766,
    "主动权": 767,
    "自立自强": 768,
    "人工智能": 769,
    "赢得": 770,
    "强化": 771,
    "更加": 772,
    "带动": 773,
    "注重": 774,
    "生产力": 775,
    "要素": 776,
    "新一轮": 777,
    "变革": 778,
    "科技成果": 779,
    "硬核": 780,
    "新质": 781,
    "创新能力": 782,
    "抓手": 783,
    "培育": 784,
    "基点": 785,
    "需求": 786,
    "电商": 787,
    "生和促": 788,
    "促进": 789,
    "智化": 790,
    "满足": 791,
    "用户数": 792,
    "内需": 793,
    "惠民": 794,
    "业态": 795,
    "优质": 796,
    "美好生活": 797,
    "促发展": 798,
    "趋势": 799,
    "扩大内需": 800,
    "人民": 801,
    "市场": 802,
    "充分发挥": 803,
    "优势": 804,
    "条款": 805,
    "保险行业": 806,
    "追究": 807,
    "出单": 808,
    "刚性": 809,
    "贸易": 810,
    "当前": 811,
    "前提": 812,
    "国资": 813,
    "费率": 814,
    "常态": 815,
    "修订": 816,
    "主题": 817,
    "更是": 818,
    "永恒": 819,
    "金融监管": 820,
    "原则": 821,
    "虚假": 822,
    "实施办法": 823,
    "防范": 824,
    "见费": 825,
    "印发": 826,
    "合规": 827,
    "约束": 828,
    "保费": 829,
    "降低": 830,
    "新格局": 831,
    "逢检": 832,
    "杠杆": 833,
    "限制": 834,
    "罚单": 835,
    "系统性": 836,
    "倍数": 837,
    "表明": 838,
    "资金来源": 839,
    "必罚": 840,
    "底线": 841,
    "不可逾越": 842,
    "频出": 843,
    "形成": 844,
    "致远": 845,
    "高标准": 846,
    "底座": 847,
    "置于": 848,
    "不仅": 849,
    "大额": 850,
    "高度": 851,
    "行稳": 852,
    "强国": 853,
    "生命线": 854,
    "监管": 855,
    "第三方": 856,
    "立法": 857,
    "思维": 858,
    "自觉": 859,
    "必修课": 860,
    "愿景": 861,
    "锚定": 862,
    "制高点": 863,
    "增长极": 864,
    "算力": 865,
    "世界": 866,
    "做强": 867,
    "一流": 868,
    "坚守": 869,
    "主责": 870,
    "优做": 871,
    "竞争": 872,
    "基石": 873,
    "总体": 874,
    "运营商": 875,
    "通信网": 876,
    "市值": 877,
    "公众": 878,
    "能级": 879,
    "产品品质": 880,
    "强基": 881,
    "供给": 882,
    "两类": 883,
    "中长期": 884,
    "规划": 885,
    "全球": 886,
    "迈上": 887,
    "两个": 888,
    "新台阶": 889,
    "智能网": 890,
    "国际": 891,
    "客群": 892,
    "使命": 893,
    "繁荣": 894,
    "结合": 895,
    "环境": 896,
    "对标": 897,
    "研究": 898,
    "演进": 899,
    "建议": 900,
    "贡献": 901,
    "以下": 902,
    "作出": 903,
    "立足": 904,
    "定位": 905,
    "飞跃": 906,
    "生活": 907,
    "运营者": 908,
    "应有": 909,
    "体制": 910,
    "赋能者": 911,
    "份额": 912,
    "服务收入": 913,
    "稳健": 914,
    "效率": 915,
    "三增": 916,
    "积极进取": 917,
    "第三": 918,
    "整体": 919,
    "经营策略": 920,
    "效益": 921,
    "阶段": 922,
    "快速增长": 923,
    "为此": 924,
    "品牌": 925,
    "务实": 926,
    "大网": 927,
    "良好形象": 928,
    "体现": 929,
    "领先地位": 930,
    "塑造": 931,
    "增效": 932,
    "网云": 933,
    "管理策略": 934,
    "强企": 935,
    "提质": 936,
    "养老": 937,
    "品类": 938,
    "养宠": 939,
    "充值卡": 940,
    "医疗卫生": 941,
    "感知": 942,
    "旅游": 943,
    "健康险": 944,
    "三要": 945,
    "产品线": 946,
    "五要": 947,
    "尊享": 948,
    "深耕": 949,
    "娱乐": 950,
    "回馈": 951,
    "不断丰富": 952,
    "百亿": 953,
    "全量": 954,
    "民生": 955,
    "运动": 956,
    "接入": 957,
    "面向": 958,
    "账号": 959,
    "大力发展": 960,
    "四要": 961,
    "二要": 962,
    "文化": 963,
    "做到": 964,
    "多元化": 965,
    "宠物": 966,
    "医疗保健": 967,
    "触点": 968,
    "存款": 969,
    "量质": 970,
    "集中": 971,
    "方法": 972,
    "全向": 973,
    "一要": 974,
    "三转": 975,
    "三大": 976,
    "重构": 977,
    "独门": 978,
    "做实": 979,
    "构效": 980,
    "调优": 981,
    "整合": 982,
    "绝技": 983,
    "共性": 984,
    "评估": 985,
    "四化": 986,
    "两大": 987,
    "督导": 988,
    "区域": 989,
    "做大": 990,
    "牵引": 991,
    "树立": 992,
    "践行": 993,
    "指示": 994,
    "稳中求进": 995,
    "网率": 996,
    "正确": 997,
    "标准": 998,
    "贯通": 999,
    "主体": 1000,
    "政绩观": 1001,
    "认真落实": 1002,
    "统一": 1003,
    "语言": 1004,
    "批示": 1005,
    "留住": 1006,
    "提高": 1007,
    "全会": 1008,
    "基调": 1009,
    "显著": 1010,
    "攻坚克难": 1011,
    "真抓实干": 1012,
    "坚定信心": 1013,
    "共识": 1014,
    "即金服": 1015,
    "抓好": 1016,
    "豆包": 1017,
    "五类": 1018,
    "三场": 1019,
    "工程": 1020,
    "战役": 1021,
    "一号": 1022,
    "入口": 1023,
    "连接": 1024,
    "钱卡": 1025,
    "交互": 1026,
    "覆盖率": 1027,
    "客流": 1028,
    "入网": 1029,
    "同开率": 1030,
    "人人": 1031,
    "经验": 1032,
    "三类": 1033,
    "省新": 1034,
    "推荐": 1035,
    "营业厅": 1036,
    "呈现": 1037,
    "管用": 1038,
    "全新": 1039,
    "咪咕": 1040,
    "总部": 1041,
    "口碑": 1042,
    "视频": 1043,
    "中国移动": 1044,
    "可见": 1045,
    "收银台": 1046,
    "渗透": 1047,
    "处处": 1048,
    "主流": 1049,
    "门户": 1050,
    "银商惠": 1051,
    "便利": 1052,
    "五大": 1053,
    "穿戴": 1054,
    "通用": 1055,
    "设备": 1056,
    "包银": 1057,
    "独家": 1058,
    "流量": 1059,
    "人群": 1060,
    "优惠": 1061,
    "积极": 1062,
    "商家": 1063,
    "标准化": 1064,
    "属地化": 1065,
    "集中化": 1066,
    "撬动": 1067,
    "餐饮": 1068,
    "快速": 1069,
    "购码": 1070,
    "专属": 1071,
    "标码": 1072,
    "封装": 1073,
    "零售": 1074,
    "精准": 1075,
    "随心": 1076,
    "渗透战": 1077,
    "销售": 1078,
    "KA": 1079,
    "联合": 1080,
    "Top100": 1081,
    "银发": 1082,
    "支持": 1083,
    "烟草": 1084,
    "惠购": 1085,
    "预存": 1086,
    "话费": 1087,
    "鼓起来": 1088,
    "引导": 1089,
    "首绑": 1090,
    "充值": 1091,
    "扩大": 1092,
    "提档": 1093,
    "要客": 1094,
    "工会": 1095,
    "互联网": 1096,
    "置装": 1097,
    "银行": 1098,
    "高效": 1099,
    "店员": 1100,
    "六大": 1101,
    "餐费": 1102,
    "载体": 1103,
    "金额": 1104,
    "互换": 1105,
    "报酬": 1106,
    "订购": 1107,
    "灵活": 1108,
    "减金": 1109,
    "纳入": 1110,
    "集中管理": 1111,
    "食堂": 1112,
    "发放": 1113,
    "发豆": 1114,
    "一点": 1115,
    "反哺": 1116,
    "豆为": 1117,
    "三费": 1118,
    "结算": 1119,
    "办公": 1120,
    "慰问": 1121,
    "节日": 1122,
    "省全": 1123,
    "纳管": 1124,
    "疗养": 1125,
    "劳动保护": 1126,
    "劳保": 1127,
    "合作伙伴": 1128,
    "验真": 1129,
    "两手硬": 1130,
    "支柱": 1131,
    "新高": 1132,
    "两手抓": 1133,
    "构筑": 1134,
    "应融": 1135,
    "亲情": 1136,
    "反诈": 1137,
    "通赔": 1138,
    "安防": 1139,
    "一人": 1140,
    "尽融": 1141,
    "增长点": 1142,
    "网等": 1143,
    "康养": 1144,
    "一档": 1145,
    "新机": 1146,
    "全家": 1147,
    "主推": 1148,
    "投保": 1149,
    "千万级": 1150,
    "结算价": 1151,
    "主渠道": 1152,
    "矩阵": 1153,
    "批发": 1154,
    "五千万": 1155,
    "经纪": 1156,
    "链条": 1157,
    "多方": 1158,
    "营收": 1159,
    "立体": 1160,
    "销售价": 1161,
    "保险产品": 1162,
    "线上": 1163,
    "百万": 1164,
    "成本价": 1165,
    "收益": 1166,
    "涵盖": 1167,
    "巩固": 1168,
    "上化": 1169,
    "服务平台": 1170,
    "分阶段": 1171,
    "流转": 1172,
    "集约": 1173,
    "过程": 1174,
    "保司": 1175,
    "购机": 1176,
    "顺差": 1177,
    "低息": 1178,
    "内外": 1179,
    "担保": 1180,
    "金融机构": 1181,
    "做优": 1182,
    "类型": 1183,
    "拓宽": 1184,
    "商品": 1185,
    "丰富": 1186,
    "合约": 1187,
    "免息": 1188,
    "高端": 1189,
    "智家泛": 1190,
    "应收": 1191,
    "保证": 1192,
    "账款": 1193,
    "现有": 1194,
    "沉淀": 1195,
    "复制": 1196,
    "解决方案": 1197,
    "出函": 1198,
    "来源": 1199,
    "资金周转": 1200,
    "外放": 1201,
    "招采": 1202,
    "采购": 1203,
    "细分": 1204,
    "延伸": 1205,
    "保函": 1206,
    "抢占": 1207,
    "掌握": 1208,
    "立身": 1209,
    "三项": 1210,
    "竞争力": 1211,
    "OCR": 1212,
    "原子": 1213,
    "声纹识别": 1214,
    "语音": 1215,
    "鉴权": 1216,
    "编排": 1217,
    "库存": 1218,
    "调度": 1219,
    "时效": 1220,
    "人员": 1221,
    "一键": 1222,
    "行程": 1223,
    "链路": 1224,
    "交付": 1225,
    "预订": 1226,
    "导览": 1227,
    "核赔": 1228,
    "动销": 1229,
    "提醒": 1230,
    "选品": 1231,
    "一线": 1232,
    "周转率": 1233,
    "评分": 1234,
    "引入": 1235,
    "蚂蚁": 1236,
    "京东": 1237,
    "头部": 1238,
    "变量": 1239,
    "紧跟": 1240,
    "组件": 1241,
    "分层": 1242,
    "画像": 1243,
    "微众": 1244,
    "互补": 1245,
    "格式": 1246,
    "CRM": 1247,
    "账单": 1248,
    "探查": 1249,
    "稽核": 1250,
    "地图": 1251,
    "关系": 1252,
    "注册": 1253,
    "实时": 1254,
    "XXpp": 1255,
    "ID": 1256,
    "架构": 1257,
    "跳板": 1258,
    "容器": 1259,
    "化率": 1260,
    "自动化": 1261,
    "助手": 1262,
    "手工操作": 1263,
    "操作界面": 1264,
    "运维": 1265,
    "下线": 1266,
    "云网数": 1267,
    "低于": 1268,
    "代码": 1269,
    "高频": 1270,
    "比达": 1271,
    "绕行": 1272,
    "生成": 1273,
    "编程": 1274,
    "计算资源": 1275,
    "投产": 1276,
    "空间": 1277,
    "文本": 1278,
    "流通": 1279,
    "具有": 1280,
    "模态": 1281,
    "业界": 1282,
    "影响力": 1283,
    "领先水平": 1284,
    "案例": 1285,
    "准确率": 1286,
    "标杆": 1287,
    "信任": 1288,
    "识别": 1289,
    "达到": 1290,
    "可信": 1291,
    "音频": 1292,
    "图像": 1293,
    "朴道": 1294,
    "权威机构": 1295,
    "征信": 1296,
    "框架": 1297,
    "市场化": 1298,
    "计算": 1299,
    "方案": 1300,
    "方式": 1301,
    "具身": 1302,
    "效应": 1303,
    "硬件": 1304,
    "组合": 1305,
    "机器人": 1306,
    "服务体系": 1307,
    "重大项目": 1308,
    "经典": 1309,
    "欺诈": 1310,
    "通道": 1311,
    "示范": 1312,
    "声纹": 1313,
    "眼镜": 1314,
    "量子": 1315,
    "软件": 1316,
    "线性": 1317,
    "范式": 1318,
    "密钥": 1319,
    "卡位": 1320,
    "eSIM": 1321,
    "关键技术": 1322,
    "事业": 1323,
    "管理效率": 1324,
    "乘数": 1325,
    "支撑力": 1326,
    "坚实": 1327,
    "破解": 1328,
    "知晓": 1329,
    "互联互通": 1330,
    "听音": 1331,
    "千人": 1332,
    "卡券": 1333,
    "二维码": 1334,
    "驱动": 1335,
    "百日": 1336,
    "愿用": 1337,
    "千名": 1338,
    "好用": 1339,
    "上线": 1340,
    "中心": 1341,
    "月初": 1342,
    "影响": 1343,
    "关键问题": 1344,
    "全员": 1345,
    "新机制": 1346,
    "招募": 1347,
    "着力": 1348,
    "健全": 1349,
    "单元": 1350,
    "厘清": 1351,
    "逐步形成": 1352,
    "协调": 1353,
    "生产": 1354,
    "前后": 1355,
    "分工": 1356,
    "协作": 1357,
    "统建": 1358,
    "职能": 1359,
    "国企改革": 1360,
    "深化改革": 1361,
    "共创": 1362,
    "共用": 1363,
    "跨部门": 1364,
    "围着": 1365,
    "界面": 1366,
    "客诉": 1367,
    "TOP": 1368,
    "之声": 1369,
    "全景": 1370,
    "大音": 1371,
    "高峰": 1372,
    "产品质量": 1373,
    "条线": 1374,
    "样板间": 1375,
    "声音": 1376,
    "预测": 1377,
    "系统化": 1378,
    "重复": 1379,
    "流畅": 1380,
    "时段": 1381,
    "运行": 1382,
    "服务质量": 1383,
    "改进": 1384,
    "收集": 1385,
    "座席": 1386,
    "关联": 1387,
    "追溯": 1388,
    "自助": 1389,
    "保持": 1390,
    "意图": 1391,
    "判责": 1392,
    "知识": 1393,
    "上下文": 1394,
    "根因": 1395,
    "三能": 1396,
    "人才队伍": 1397,
    "加大": 1398,
    "工作思路": 1399,
    "退出": 1400,
    "科学性": 1401,
    "投入": 1402,
    "队伍": 1403,
    "负面": 1404,
    "能增能减": 1405,
    "两支": 1406,
    "力度": 1407,
    "细化": 1408,
    "能上能下": 1409,
    "分配": 1410,
    "二次": 1411,
    "盈利模式": 1412,
    "畅通": 1413,
    "盘活": 1414,
    "进退": 1415,
    "流动": 1416,
    "预警": 1417,
    "配置": 1418,
    "实效性": 1419,
    "担纲": 1420,
    "人才资源": 1421,
    "训证": 1422,
    "能进能出": 1423,
    "升降": 1424,
    "人才培养": 1425,
    "结果": 1426,
    "靶向": 1427,
    "高潜": 1428,
    "领衔": 1429,
    "配套": 1430,
    "防御能力": 1431,
    "操作系统": 1432,
    "切断": 1433,
    "国产": 1434,
    "严控": 1435,
    "高一": 1436,
    "外网": 1437,
    "任意": 1438,
    "DevOps": 1439,
    "数据库": 1440,
    "扫描": 1441,
    "地址": 1442,
    "端口": 1443,
    "漏洞": 1444,
    "稽查": 1445,
    "桌面": 1446,
    "实行": 1447,
    "口令": 1448,
    "日志": 1449,
    "全面推广": 1450,
    "审查": 1451,
    "更新": 1452,
    "高危": 1453,
    "根源": 1454,
    "总体目标": 1455,
    "防线": 1456,
    "深入开展": 1457,
    "保密工作": 1458,
    "治本": 1459,
    "三年": 1460,
    "隐患": 1461,
    "扩充": 1462,
    "开源": 1463,
    "符合率": 1464,
    "仓库": 1465,
    "白名单": 1466,
    "初步": 1467,
    "以上": 1468,
    "锻造": 1469,
    "财经纪律": 1470,
    "全面实施": 1471,
    "业绩": 1472,
    "到位": 1473,
    "严肃": 1474,
    "各项": 1475,
    "造假": 1476,
    "杜绝": 1477,
    "深挖": 1478,
    "手段": 1479,
    "严格": 1480,
    "解读": 1481,
    "真正": 1482,
    "红线": 1483,
    "阵地": 1484,
    "上网": 1485,
    "意识形态": 1486,
    "坚决": 1487,
    "审核": 1488,
    "全面落实": 1489,
    "巡检": 1490,
    "从严": 1491,
    "成立": 1492,
    "党组织": 1493,
    "国有企业": 1494,
    "政治": 1495,
    "整体性": 1496,
    "各级": 1497,
    "前列": 1498,
    "召开": 1499,
    "坚持下去": 1500,
    "作风过硬": 1501,
    "治吏": 1502,
    "今年": 1503,
    "执纪": 1504,
    "管党": 1505,
    "长期": 1506,
    "周年": 1507,
    "更好": 1508,
    "反腐": 1509,
    "就是": 1510,
    "措施": 1511,
    "过硬": 1512,
    "氛围": 1513,
    "廉洁": 1514,
    "作风": 1515,
    "党的建设": 1516,
    "中国共产党": 1517,
    "领导班子": 1518,
    "把握": 1519,
    "铸魂": 1520,
    "深刻": 1521,
    "领会": 1522,
    "理论": 1523,
    "站位": 1524,
    "用党": 1525,
    "国企": 1526,
    "专题": 1527,
    "统一行动": 1528,
    "以学": 1529,
    "培训": 1530,
    "武装": 1531,
    "意志": 1532,
    "中心组": 1533,
    "长效机制": 1534,
    "准确": 1535,
    "凝心": 1536,
    "贯彻执行": 1537,
    "研商": 1538,
    "一考": 1539,
    "事项": 1540,
    "双述": 1541,
    "大局": 1542,
    "方向": 1543,
    "集体": 1544,
    "党委": 1545,
    "四评": 1546,
    "战斗力": 1547,
    "用人": 1548,
    "考察干部": 1549,
    "善于": 1550,
    "开阔": 1551,
    "压紧": 1552,
    "压实": 1553,
    "周期": 1554,
    "交流": 1555,
    "压力": 1556,
    "层层": 1557,
    "导向": 1558,
    "历练": 1559,
    "干部队伍": 1560,
    "培养": 1561,
    "一支": 1562,
    "视野": 1563,
    "精通": 1564,
    "党性": 1565,
    "传导": 1566,
    "三谈": 1567,
    "履职": 1568,
    "选人": 1569,
    "纠治": 1570,
    "不理": 1571,
    "急功近利": 1572,
    "弄虚作假": 1573,
    "错位": 1574,
    "办事": 1575,
    "党员干部": 1576,
    "规律": 1577,
    "形象工程": 1578,
    "盲目": 1579,
    "扭曲": 1580,
    "实际": 1581,
    "出发": 1582,
    "旧账": 1583,
    "蛮干": 1584,
    "提振": 1585,
    "使命感": 1586,
    "紧迫感": 1587,
    "责任感": 1588,
    "勇于": 1589,
    "迎难而上": 1590,
    "决心": 1591,
    "信心": 1592,
    "挺身而出": 1593,
    "战略目标": 1594,
    "紧密结合": 1595,
    "厚生": 1596,
    "正德": 1597,
    "七律": 1598,
    "理念": 1599,
    "合力": 1600,
    "弘扬": 1601,
    "宣讲": 1602,
    "职业道德": 1603,
    "广大": 1604,
    "于行": 1605,
    "打胜仗": 1606,
    "至善": 1607,
    "内化": 1608,
    "于心": 1609,
    "外化": 1610,
    "评议": 1611,
    "严明": 1612,
    "治党": 1613,
    "纪律": 1614,
    "共商": 1615,
    "述职": 1616,
    "规矩": 1617,
    "自我": 1618,
    "问责": 1619,
    "五个": 1620,
    "对策": 1621,
    "履行": 1622,
    "革命": 1623,
    "更实": 1624,
    "共研": 1625,
    "一把手": 1626,
    "有禁不止": 1627,
    "执行": 1628,
    "边界": 1629,
    "关进": 1630,
    "纸笼": 1631,
    "违章": 1632,
    "权力": 1633,
    "有令不行": 1634,
    "牛栏": 1635,
    "关猫": 1636,
    "笼子": 1637,
    "防止": 1638,
    "有章不循": 1639,
    "不究": 1640,
    "禁虎": 1641,
    "惩治": 1642,
    "以案": 1643,
    "同查": 1644,
    "风腐": 1645,
    "震慑": 1646,
    "长效": 1647,
    "四种": 1648,
    "隐性": 1649,
    "跟踪": 1650,
    "促治": 1651,
    "意识": 1652,
    "巡察": 1653,
    "抓早": 1654,
    "同治": 1655,
    "不断": 1656,
    "正风肃纪": 1657,
    "促改": 1658,
    "前面": 1659,
    "警示": 1660,
    "腐败": 1661,
    "风清气": 1662,
    "防微杜渐": 1663,
    "贪蚁腐": 1664,
    "督促": 1665,
    "身边": 1666,
    "问效": 1667,
    "活力": 1668,
    "不觉": 1669,
    "勇气": 1670,
    "迢迢": 1671,
    "阔步": 1672,
    "坚定不移": 1673,
    "干劲": 1674,
    "前路": 1675,
    "拿出": 1676,
    "而行": 1677,
    "奋力": 1678,
    "寻梦": 1679,
    "其远": 1680,
    "乘势而上": 1681,
    "山海": 1682,
    "马不停蹄": 1683,
    "跃马扬鞭": 1684,
    "万马奔腾": 1685,
    "工作汇报": 1686,
    "届历": 1687,
    "五五": 1688,
    "起好步": 1689,
    "开好局": 1690,
    "护肤": 1691,
    "便捷": 1692,
    "汇集": 1693,
    "家居生活": 1694,
    "足不出户": 1695,
    "手机": 1696,
    "即可": 1697,
    "电脑": 1698,
    "户外": 1699,
    "生鲜": 1700,
    "家用电器": 1701,
    "食品": 1702,
    "综合性": 1703,
    "一家": 1704,
    "购物": 1705,
    "fTaoBao": 1706,
    "B2C": 1707,
    "鞋包": 1708,
    "服饰": 1709,
    "享受": 1710,
    "尊敬": 1711,
    "精选": 1712,
    "致力于": 1713,
    "超过": 1714,
    "网上": 1715,
    "美妆": 1716,
    "消费者": 1717,
    "服务指南": 1718,
    "数码": 1719,
    "欢迎您": 1720,
    "正品": 1721,
    "帮助": 1722,
    "贴心": 1723,
    "一位": 1724,
    "拥有": 1725,
    "诚信": 1726,
    "退换货": 1727,
    "物流": 1728,
    "承诺": 1729,
    "联系": 1730,
    "七天": 1731,
    "理由": 1732,
    "极速": 1733,
    "全方位": 1734,
    "价值观": 1735,
    "小时": 1736,
    "工作日": 1737,
    "售后服务": 1738,
    "客服热线": 1739,
    "全天候": 1740,
    "热线": 1741,
    "查询": 1742,
    "专线": 1743,
    "电话": 1744,
    "VIP": 1745,
    "官方": 1746,
    "media": 1747,
    "ftaoabao": 1748,
    "工作日内": 1749,
    "support": 1750,
    "邮箱": 1751,
    "com": 1752,
    "回复": 1753,
    "商务": 1754,
    "service": 1755,
    "采访": 1756,
    "complaint": 1757,
    "咨询": 1758,
    "business": 1759,
    "媒体": 1760,
    "order": 1761,
    "登录": 1762,
    "人工": 1763,
    "按钮": 1764,
    "时间": 1765,
    "网站": 1766,
    "右下角": 1767,
    "打开": 1768,
    "点击": 1769,
    "每日": 1770,
    "在线": 1771,
    "官网": 1772,
    "常见问题": 1773,
    "进入": 1774,
    "不间断": 1775,
    "营业时间": 1776,
    "物流配送": 1777,
    "正常": 1778,
    "节假日": 1779,
    "法定": 1780,
    "张江高": 1781,
    "有限公司": 1782,
    "许可证": 1783,
    "B2": 1784,
    "大厦": 1785,
    "博云路": 1786,
    "营业执照": 1787,
    "朝阳区": 1788,
    "科技园区": 1789,
    "全称": 1790,
    "上海市浦东新区": 1791,
    "北京市": 1792,
    "91110105MA01ABCD99": 1793,
    "备案号": 1794,
    "ICP": 1795,
    "注册号": 1796,
    "建国路": 1797,
    "电信业务": 1798,
    "各个方面": 1799,
    "目前": 1800,
    "日常生活": 1801,
    "第二章": 1802,
    "详解": 1803,
    "智能手机": 1804,
    "赔十": 1805,
    "群体": 1806,
    "学生": 1807,
    "假一": 1808,
    "CAT": 1809,
    "适用人群": 1810,
    "授权": 1811,
    "商务人士": 1812,
    "商品编号": 1813,
    "厂家": 1814,
    "平板": 1815,
    "联保": 1816,
    "手表": 1817,
    "数码产品": 1818,
    "爱好者": 1819,
    "PHONE": 1820,
    "前缀": 1821,
    "音箱": 1822,
    "卖点": 1823,
    "白领": 1824,
    "笔记本电脑": 1825,
    "程序员": 1826,
    "办公设备": 1827,
    "保修": 1828,
    "键盘": 1829,
    "台式": 1830,
    "行货": 1831,
    "配件": 1832,
    "鼠标": 1833,
    "设计师": 1834,
    "齐全": 1835,
    "PC": 1836,
    "预装": 1837,
    "大件": 1838,
    "HOME": 1839,
    "小家电": 1840,
    "电视": 1841,
    "安装": 1842,
    "厨房": 1843,
    "家庭用户": 1844,
    "包邮": 1845,
    "洗衣机": 1846,
    "冰箱": 1847,
    "电器": 1848,
    "新房": 1849,
    "家电": 1850,
    "整机": 1851,
    "送货上门": 1852,
    "大型": 1853,
    "装修": 1854,
    "退换": 1855,
    "运动鞋": 1856,
    "时尚": 1857,
    "CLOTH": 1858,
    "包类": 1859,
    "尺码": 1860,
    "休闲鞋": 1861,
    "箱包": 1862,
    "帽子": 1863,
    "FOOD": 1864,
    "运输": 1865,
    "零食": 1866,
    "上班族": 1867,
    "新鲜": 1868,
    "水果": 1869,
    "酒水": 1870,
    "饮料": 1871,
    "直达": 1872,
    "乳制品": 1873,
    "保质期": 1874,
    "坚果": 1875,
    "美食": 1876,
    "水产": 1877,
    "冷链": 1878,
    "海鲜": 1879,
    "护理": 1880,
    "日期": 1881,
    "无忧": 1882,
    "护肤品": 1883,
    "香水": 1884,
    "为主": 1885,
    "BEAUTY": 1886,
    "女性": 1887,
    "专柜": 1888,
    "过敏": 1889,
    "年龄段": 1890,
    "彩妆": 1891,
    "个人": 1892,
    "户外运动": 1893,
    "健身": 1894,
    "体育": 1895,
    "装备": 1896,
    "售后": 1897,
    "健身器材": 1898,
    "球类运动": 1899,
    "SPORT": 1900,
    "维修": 1901,
    "环保": 1902,
    "设计": 1903,
    "租房": 1904,
    "家居": 1905,
    "收纳": 1906,
    "材质": 1907,
    "LIFE": 1908,
    "实用": 1909,
    "床上用品": 1910,
    "入住": 1911,
    "厨房用品": 1912,
    "搜索": 1913,
    "序号": 1914,
    "筛选": 1915,
    "模糊": 1916,
    "说明": 1917,
    "每款": 1918,
    "浏览": 1919,
    "缩写": 1920,
    "商品信息": 1921,
    "价格": 1922,
    "唯一": 1923,
    "区间": 1924,
    "商品名称": 1925,
    "金属": 1926,
    "光学": 1927,
    "iPhone": 1928,
    "包装": 1929,
    "简介": 1930,
    "入门": 1931,
    "播放": 1932,
    "电池": 1933,
    "IP68": 1934,
    "蓝牙": 1935,
    "顺丰速运": 1936,
    "ProMotion": 1937,
    "边框": 1938,
    "变焦": 1939,
    "显示屏": 1940,
    "配送": 1941,
    "配备": 1942,
    "A17": 1943,
    "Wi": 1944,
    "刷新率": 1945,
    "苹果公司": 1946,
    "最长": 1947,
    "售价": 1948,
    "六个月": 1949,
    "第三章": 1950,
    "送达": 1951,
    "Max": 1952,
    "英寸": 1953,
    "补充": 1954,
    "规格": 1955,
    "城市": 1956,
    "LiDAR": 1957,
    "6E": 1958,
    "适应": 1959,
    "Apple": 1960,
    "详细信息": 1961,
    "扫描仪": 1962,
    "USB": 1963,
    "防尘": 1964,
    "续航": 1965,
    "详细": 1966,
    "像素": 1967,
    "Fi": 1968,
    "防水": 1969,
    "Pro": 1970,
    "指南": 1971,
    "接口": 1972,
    "主摄": 1973,
    "充电器": 1974,
    "保修卡": 1975,
    "主机": 1976,
    "取卡针": 1977,
    "一年": 1978,
    "数据线": 1979,
    "芯片": 1980,
    "原装": 1981,
    "旗舰": 1982,
    "自定义": 1983,
    "Face": 1984,
    "视网膜": 1985,
    "AppleCare": 1986,
    "XDR": 1987,
    "可选延保": 1988,
    "无线": 1989,
    "快捷": 1990,
    "充电": 1991,
    "MagSafe": 1992,
    "动作": 1993,
    "A16": 1994,
    "仿生": 1995,
    "灵动": 1996,
    "二代": 1997,
    "大众": 1998,
    "全焦": 1999,
    "Mate": 2000,
    "华为": 2001,
    "昆仑": 2002,
    "12GB": 2003,
    "有线": 2004,
    "超清": 2005,
    "512GB": 2006,
    "快充": 2007,
    "配色": 2008,
    "影像": 2009,
    "50W": 2010,
    "选择": 2011,
    "麒麟": 2012,
    "5000mAh": 2013,
    "88W": 2014,
    "9000S": 2015,
    "LTPO": 2016,
    "多种": 2017,
    "卫星": 2018,
    "自研": 2019,
    "通话": 2020,
    "OLED": 2021,
    "玻璃": 2022,
    "首款": 2023,
    "曲面": 2024,
    "HUAWEI": 2025,
    "可变": 2026,
    "出厂": 2027,
    "66W": 2028,
    "骁龙": 2029,
    "Gen1": 2030,
    "256GB": 2031,
    "XMAGE": 2032,
    "4G": 2033,
    "聚光": 2034,
    "直屏": 2035,
    "P60": 2036,
    "4815mAh": 2037,
    "耐用": 2038,
    "三摄": 2039,
    "4750mAh": 2040,
    "光圈": 2041,
    "鸿蒙": 2042,
    "消息": 2043,
    "拍摄": 2044,
    "长焦": 2045,
    "夜景": 2046,
    "红外": 2047,
    "立体声": 2048,
    "100W": 2049,
    "遥控": 2050,
    "机位": 2051,
    "Nova": 2052,
    "前置": 2053,
    "人像": 2054,
    "后置": 2055,
    "扬声器": 2056,
    "主打": 2057,
    "NFC": 2058,
    "Ultra": 2059,
    "超广角": 2060,
    "焦主摄": 2061,
    "倍长": 2062,
    "4600mAh": 2063,
    "8Gen3": 2064,
    "全等": 2065,
    "75mm": 2066,
    "多屏": 2067,
    "浮动": 2068,
    "2K": 2069,
    "Summilux": 2070,
    "光学系统": 2071,
    "曲屏": 2072,
    "处理器": 2073,
    "Xiaomi": 2074,
    "5300mAh": 2075,
    "大底": 2076,
    "小米": 2077,
    "深微": 2078,
    "Gen3": 2079,
    "摄影": 2080,
    "录制": 2081,
    "8K": 2082,
    "90W": 2083,
    "全功能": 2084,
    "HDR": 2085,
    "镜头": 2086,
    "一应俱全": 2087,
    "120W": 2088,
    "4880mAh": 2089,
    "握持": 2090,
    "尺寸": 2091,
    "出众": 2092,
    "4610mAh": 2093,
    "舒适": 2094,
    "轻薄": 2095,
    "拍照": 2096,
    "67W": 2097,
    "双摄": 2098,
    "卡主摄": 2099,
    "滤镜": 2100,
    "4K": 2101,
    "自动": 2102,
    "大师": 2103,
    "4700mAh": 2104,
    "8s": 2105,
    "Civi": 2106,
    "双主摄": 2107,
    "对焦": 2108,
    "哈苏": 2109,
    "X7": 2110,
    "潜望": 2111,
    "色彩": 2112,
    "Find": 2113,
    "万一": 2114,
    "闪充": 2115,
    "屏幕": 2116,
    "卫星通信": 2117,
    "自然": 2118,
    "四摄": 2119,
    "OPPO": 2120,
    "联发科": 2121,
    "感光": 2122,
    "天玑": 2123,
    "万长": 2124,
    "潮流": 2125,
    "猫眼": 2126,
    "实况": 2127,
    "马里亚纳": 2128,
    "80W": 2129,
    "万主摄": 2130,
    "照片": 2131,
    "Reno12": 2132,
    "蓝海": 2133,
    "双芯": 2134,
    "抑制": 2135,
    "5400mAh": 2136,
    "V3": 2137,
    "X100": 2138,
    "APO": 2139,
    "眩光": 2140,
    "蔡司": 2141,
    "护眼": 2142,
    "镀膜": 2143,
    "蓝厂": 2144,
    "vivo": 2145,
    "调校": 2146,
    "机身": 2147,
    "4800mAh": 2148,
    "S18": 2149,
    "柔光": 2150,
    "光灯": 2151,
    "QHD": 2152,
    "Pen": 2153,
    "编辑": 2154,
    "三星": 2155,
    "2X": 2156,
    "内置": 2157,
    "Dynamic": 2158,
    "S24": 2159,
    "Galaxy": 2160,
    "手写笔": 2161,
    "AMOLED": 2162,
    "坚固耐用": 2163,
    "for": 2164,
    "翻译": 2165,
    "45W": 2166,
    "Samsung": 2167,
    "OnePlus": 2168,
    "一加": 2169,
    "64MP": 2170,
    "东方": 2171,
    "索尼": 2172,
    "LYT": 2173,
    "Magic6": 2174,
    "荣耀": 2175,
    "青海湖": 2176,
    "HONOR": 2177,
    "巨犀": 2178,
    "5600mAh": 2179,
    "鸿燕": 2180,
    "持久": 2181,
    "北斗": 2182,
    "双向": 2183,
    "SSD": 2184,
    "32GB": 2185,
    "内存": 2186,
    "CPU": 2187,
    "本人": 2188,
    "HDMI": 2189,
    "GPU": 2190,
    "专用发票": 2191,
    "卡槽": 2192,
    "签收": 2193,
    "普通发票": 2194,
    "开具": 2195,
    "Retina": 2196,
    "1TB": 2197,
    "Liquid": 2198,
    "增值税": 2199,
    "SDXC": 2200,
    "M3": 2201,
    "发票": 2202,
    "雷雳": 2203,
    "凭证": 2204,
    "用于": 2205,
    "两年": 2206,
    "贵重": 2207,
    "MacBook": 2208,
    "摄像头": 2209,
    "18GB": 2210,
    "1080P": 2211,
    "FaceTime": 2212,
    "高清": 2213,
    "重量": 2214,
    "8GB": 2215,
    "静音": 2216,
    "kg": 2217,
    "mm": 2218,
    "便携": 2219,
    "风扇": 2220,
    "厚度": 2221,
    "Air": 2222,
    "超轻薄": 2223,
    "楔形": 2224,
    "千克": 2225,
    "Lenovo": 2226,
    "Carbon": 2227,
    "背光": 2228,
    "DDR5": 2229,
    "光屏": 2230,
    "i7": 2231,
    "酷睿": 2232,
    "TrackPoint": 2233,
    "防眩": 2234,
    "指点": 2235,
    "英特尔": 2236,
    "1365U": 2237,
    "ThinkPad": 2238,
    "联想": 2239,
    "WUXGA": 2240,
    "项军标": 2241,
    "IPS": 2242,
    "指纹识别": 2243,
    "X1": 2244,
    "可靠": 2245,
    "NVMe": 2246,
    "测试": 2247,
    "标压": 2248,
    "线程": 2249,
    "7840HS": 2250,
    "高性能": 2251,
    "AMD": 2252,
    "锐龙": 2253,
    "Radeon": 2254,
    "核显": 2255,
    "小新": 2256,
    "780M": 2257,
    "75Wh": 2258,
    "120Hz": 2259,
    "方向键": 2260,
    "16GB": 2261,
    "热管": 2262,
    "霜刃": 2263,
    "直连": 2264,
    "RTX": 2265,
    "输出": 2266,
    "满血": 2267,
    "混合": 2268,
    "尼特": 2269,
    "显卡": 2270,
    "14900HX": 2271,
    "RTX4070": 2272,
    "独显": 2273,
    "Y9000P": 2274,
    "拯救": 2275,
    "240Hz": 2276,
    "i9": 2277,
    "散热": 2278,
    "140W": 2279,
    "iPad": 2280,
    "妙控": 2281,
    "M4": 2282,
    "音响系统": 2283,
    "LED": 2284,
    "Mini": 2285,
    "M2": 2286,
    "Pencil": 2287,
    "手写": 2288,
    "第二代": 2289,
    "128GB": 2290,
    "键盘输入": 2291,
    "980g": 2292,
    "MateBook": 2293,
    "触控屏": 2294,
    "90Hz": 2295,
    "触屏": 2296,
    "LPDDR5": 2297,
    "1360P": 2298,
    "60Hz": 2299,
    "3K": 2300,
    "触控板": 2301,
    "超级终端": 2302,
    "4GB": 2303,
    "笔记本": 2304,
    "13700H": 2305,
    "MIUI": 2306,
    "CNC": 2307,
    "氮化": 2308,
    "精雕": 2309,
    "Hyperdymium": 2310,
    "参考": 2311,
    "吸尘器": 2312,
    "收费": 2313,
    "具体": 2314,
    "滤网": 2315,
    "清洗": 2316,
    "探测": 2317,
    "空调": 2318,
    "吸力": 2319,
    "V15": 2320,
    "过滤": 2321,
    "大小": 2322,
    "LCD": 2323,
    "不同": 2324,
    "详情页": 2325,
    "分钟": 2326,
    "激光": 2327,
    "显示": 2328,
    "地板": 2329,
    "小至": 2330,
    "高级": 2331,
    "微米": 2332,
    "马达": 2333,
    "灰尘": 2334,
    "戴森": 2335,
    "地毯": 2336,
    "强劲": 2337,
    "捕获": 2338,
    "Dyson": 2339,
    "清洁": 2340,
    "微尘": 2341,
    "节能": 2342,
    "免费": 2343,
    "预约": 2344,
    "凉风": 2345,
    "无叶": 2346,
    "四季": 2347,
    "H13": 2348,
    "净化器": 2349,
    "夜间": 2350,
    "控制": 2351,
    "冷暖": 2352,
    "倍增": 2353,
    "除甲醛": 2354,
    "湿度": 2355,
    "HEPA": 2356,
    "HP09": 2357,
    "空气": 2358,
    "花粉": 2359,
    "三合一": 2360,
    "温度": 2361,
    "活性炭": 2362,
    "可用": 2363,
    "暖风": 2364,
    "污染物": 2365,
    "PM2.5": 2366,
    "远程": 2367,
    "夏季": 2368,
    "冬季": 2369,
    "空气净化": 2370,
    "气流": 2371,
    "空气质量": 2372,
    "压缩机": 2373,
    "高温": 2374,
    "变频": 2375,
    "调节": 2376,
    "18dB": 2377,
    "GREE": 2378,
    "房间": 2379,
    "格力": 2380,
    "除湿": 2381,
    "格力空调": 2382,
    "平方米": 2383,
    "凌达": 2384,
    "包修": 2385,
    "风速": 2386,
    "适合": 2387,
    "制冷量": 2388,
    "睡眠": 2389,
    "一级": 2390,
    "独立": 2391,
    "云佳": 2392,
    "低至": 2393,
    "保温": 2394,
    "客厅": 2395,
    "wifi": 2396,
    "云逸": 2397,
    "大面积": 2398,
    "立柜": 2399,
    "立式": 2400,
    "左右": 2401,
    "送风": 2402,
    "扫风": 2403,
    "整晚": 2404,
    "第四代": 2405,
    "制热": 2406,
    "度电": 2407,
    "分贝": 2408,
    "酷省": 2409,
    "控温": 2410,
    "Midea": 2411,
    "挂机": 2412,
    "值高达": 2413,
    "APF": 2414,
    "美的": 2415,
    "制冷": 2416,
    "ECO": 2417,
    "游戏": 2418,
    "输入": 2419,
    "画面": 2420,
    "65X90L": 2421,
    "多声道": 2422,
    "XR": 2423,
    "杜比": 2424,
    "认知": 2425,
    "阵列": 2426,
    "HDR10": 2427,
    "PlayStation": 2428,
    "控光": 2429,
    "视界": 2430,
    "声场": 2431,
    "SONY": 2432,
    "分区": 2433,
    "S85": 2434,
    "DCI": 2435,
    "峰值": 2436,
    "MEMC": 2437,
    "VRR": 2438,
    "ALLM": 2439,
    "补偿": 2440,
    "观看": 2441,
    "亮度": 2442,
    "广色域": 2443,
    "比高": 2444,
    "P3": 2445,
    "大屏": 2446,
    "144Hz": 2447,
    "基站": 2448,
    "拖地": 2449,
    "同学": 2450,
    "旋转": 2451,
    "小爱": 2452,
    "保存": 2453,
    "米家": 2454,
    "导航": 2455,
    "垃圾": 2456,
    "热水": 2457,
    "5000Pa": 2458,
    "拖布": 2459,
    "模拟": 2460,
    "断点": 2461,
    "回充": 2462,
    "建图": 2463,
    "加压": 2464,
    "天免": 2465,
    "集尘": 2466,
    "烘干": 2467,
    "楼层": 2468,
    "LDS": 2469,
    "扫地": 2470,
    "X20": 2471,
    "续扫": 2472,
    "去污": 2473,
    "添加": 2474,
    "8000Pa": 2475,
    "避障": 2476,
    "补水": 2477,
    "避免": 2478,
    "清洁液": 2479,
    "全能": 2480,
    "热风": 2481,
    "Ecovacs": 2482,
    "科沃": 2483,
    "飓风": 2484,
    "激光雷达": 2485,
    "唤醒": 2486,
    "YIKO": 2487,
    "T30": 2488,
    "异味": 2489,
    "打理": 2490,
    "7000Pa": 2491,
    "障碍物": 2492,
    "P10": 2493,
    "Reactive": 2494,
    "石头": 2495,
    "Roborock": 2496,
    "Google": 2497,
    "缠毛": 2498,
    "抬起": 2499,
    "不易": 2500,
    "双螺旋": 2501,
    "胶刷": 2502,
    "Home": 2503,
    "Alexa": 2504,
    "风冷": 2505,
    "搁架": 2506,
    "十字": 2507,
    "烦恼": 2508,
    "海尔": 2509,
    "重力": 2510,
    "深冷": 2511,
    "开门": 2512,
    "锁鲜": 2513,
    "速冻": 2514,
    "净味": 2515,
    "除菌率": 2516,
    "耗电": 2517,
    "钢化玻璃": 2518,
    "植萃": 2519,
    "Haier": 2520,
    "冷冻": 2521,
    "大容量": 2522,
    "除菌": 2523,
    "免除": 2524,
    "除异味": 2525,
    "ABT": 2526,
    "无霜": 2527,
    "SIEMENS": 2528,
    "水垢": 2529,
    "冲洗": 2530,
    "嵌入式": 2531,
    "热交换": 2532,
    "洗碗机": 2533,
    "喷淋": 2534,
    "44dB": 2535,
    "噪音": 2536,
    "日常": 2537,
    "冷凝": 2538,
    "延时": 2539,
    "强快": 2540,
    "洗涤": 2541,
    "西门子": 2542,
    "5D": 2543,
    "软水": 2544,
    "容量": 2545,
    "半载": 2546,
    "联网": 2547,
    "启动": 2548,
    "程序": 2549,
    "IOT": 2550,
    "省水省": 2551,
    "卫生": 2552,
    "斐雪": 2553,
    "自洁": 2554,
    "泡沫": 2555,
    "大筒径": 2556,
    "蒸汽": 2557,
    "直驱": 2558,
    "洗衣": 2559,
    "10kg": 2560,
    "残留": 2561,
    "525mm": 2562,
    "减少": 2563,
    "7kg": 2564,
    "投放": 2565,
    "电机": 2566,
    "除皱": 2567,
    "派克": 2568,
    "摔打": 2569,
    "柔顺剂": 2570,
    "扩散": 2571,
    "吹风机": 2572,
    "风嘴": 2573,
    "万转": 2574,
    "负离子": 2575,
    "高速": 2576,
    "毛躁": 2577,
    "顺滑": 2578,
    "转速": 2579,
    "Multiplier": 2580,
    "档风温": 2581,
    "第九代": 2582,
    "产生": 2583,
    "静电": 2584,
    "冷风": 2585,
    "过热": 2586,
    "HD15": 2587,
    "造型": 2588,
    "防飞": 2589,
    "损伤": 2590,
    "发质": 2591,
    "高压": 2592,
    "温控": 2593,
    "可拆卸": 2594,
    "1200W": 2595,
    "加热": 2596,
    "上盖": 2597,
    "受热": 2598,
    "稀饭": 2599,
    "电饭煲": 2600,
    "均匀": 2601,
    "IH": 2602,
    "4L": 2603,
    "火力": 2604,
    "方便": 2605,
    "米饭": 2606,
    "定时": 2607,
    "苏泊尔": 2608,
    "火候": 2609,
    "锁温": 2610,
    "柴火": 2611,
    "内胆": 2612,
    "电磁": 2613,
    "环绕": 2614,
    "锅巴": 2615,
    "聚能": 2616,
    "精控": 2617,
    "SUPOR": 2618,
    "煮饭": 2619,
    "系列": 2620,
    "感应式": 2621,
    "震动": 2622,
    "飞利浦": 2623,
    "电动牙刷": 2624,
    "声波": 2625,
    "每分钟": 2626,
    "保健": 2627,
    "颜色": 2628,
    "抛光": 2629,
    "钻石": 2630,
    "刷头": 2631,
    "亮白型": 2632,
    "HX9352": 2633,
    "刷牙": 2634,
    "Philips": 2635,
    "一次": 2636,
    "旅行": 2637,
    "敏感": 2638,
    "牙龈": 2639,
    "Quadpacer": 2640,
    "计时": 2641,
    "亮白": 2642,
    "落地扇": 2643,
    "电风扇": 2644,
    "三档": 2645,
    "台立": 2646,
    "摆头": 2647,
    "自然风": 2648,
    "可调": 2649,
    "七叶": 2650,
    "方便快捷": 2651,
    "低噪": 2652,
    "适用": 2653,
    "遥控器": 2654,
    "俯仰": 2655,
    "柔和": 2656,
    "休息": 2657,
    "打扰": 2658,
    "角度": 2659,
    "两用": 2660,
    "大风": 2661,
    "白色": 2662,
    "面料": 2663,
    "男女": 2664,
    "耐磨": 2665,
    "Force": 2666,
    "仔细阅读": 2667,
    "防滑": 2668,
    "搭配": 2669,
    "百搭易": 2670,
    "外底": 2671,
    "休闲装": 2672,
    "穿着": 2673,
    "运动装": 2674,
    "机洗": 2675,
    "Nike": 2676,
    "全粒面": 2677,
    "缓震": 2678,
    "轻量": 2679,
    "毛刷": 2680,
    "完好": 2681,
    "同款": 2682,
    "AF1": 2683,
    "鞋面": 2684,
    "低帮": 2685,
    "橡胶": 2686,
    "百搭板": 2687,
    "百搭小白鞋": 2688,
    "气垫": 2689,
    "Sole": 2690,
    "耐克": 2691,
    "洗护": 2692,
    "皮革": 2693,
    "对照表": 2694,
    "牛仔裤": 2695,
    "可视": 2696,
    "轻盈": 2697,
    "网眼": 2698,
    "渐变": 2699,
    "回弹": 2700,
    "出色": 2701,
    "透气": 2702,
    "跑鞋": 2703,
    "长时间": 2704,
    "轻量化": 2705,
    "多色": 2706,
    "网面": 2707,
    "外观": 2708,
    "Boost": 2709,
    "Ultraboost": 2710,
    "扭转": 2711,
    "能量": 2712,
    "Torsion": 2713,
    "中底": 2714,
    "Primeknit": 2715,
    "System": 2716,
    "阿迪达斯": 2717,
    "贴合": 2718,
    "抓地": 2719,
    "Adidas": 2720,
    "编织": 2721,
    "Stretchweb": 2722,
    "竞速": 2723,
    "LI": 2724,
    "轻弹": 2725,
    "RB": 2726,
    "滑大底": 2727,
    "关节": 2728,
    "单只": 2729,
    "全掌": 2730,
    "不闷": 2731,
    "beng": 2732,
    "鞋楦": 2733,
    "超轻": 2734,
    "跑步": 2735,
    "马拉松": 2736,
    "篮球鞋": 2737,
    "李宁": 2738,
    "鞋带": 2739,
    "训练": 2740,
    "签名": 2741,
    "保护": 2742,
    "极轻": 2743,
    "TUFF": 2744,
    "脚型": 2745,
    "长距离": 2746,
    "180g": 2747,
    "BOA": 2748,
    "韦德": 2749,
    "亚洲": 2750,
    "NING": 2751,
    "之道": 2752,
    "碳板": 2753,
    "效果显著": 2754,
    "性价比": 2755,
    "轻质": 2756,
    "160g": 2757,
    "慢跑": 2758,
    "男款": 2759,
    "网孔": 2760,
    "通风": 2761,
    "安踏": 2762,
    "可选": 2763,
    "软弹": 2764,
    "ANTA": 2765,
    "实战": 2766,
    "款均": 2767,
    "首选": 2768,
    "加持": 2769,
    "收藏": 2770,
    "亲民": 2771,
    "包裹": 2772,
    "织物": 2773,
    "百搭": 2774,
    "大半": 2775,
    "New": 2776,
    "ENCAP": 2777,
    "复古": 2778,
    "2002R": 2779,
    "NB": 2780,
    "猪巴革": 2781,
    "黑白": 2782,
    "款式": 2783,
    "元祖": 2784,
    "ergy": 2785,
    "偏小": 2786,
    "老爹": 2787,
    "稳定": 2788,
    "海盐": 2789,
    "Balance": 2790,
    "质感": 2791,
    "情侣": 2792,
    "上学": 2793,
    "款百搭": 2794,
    "多款": 2795,
    "休闲": 2796,
    "海军蓝": 2797,
    "黑色": 2798,
    "Taylor": 2799,
    "Star": 2800,
    "高帮": 2801,
    "裙装": 2802,
    "鞋底": 2803,
    "鞋眼": 2804,
    "匡威": 2805,
    "经久耐用": 2806,
    "注意": 2807,
    "帆布鞋": 2808,
    "Converse": 2809,
    "联名": 2810,
    "磨脚": 2811,
    "长袜": 2812,
    "短裤": 2813,
    "皆宜": 2814,
    "All": 2815,
    "棉质": 2816,
    "Chuck": 2817,
    "Vans": 2818,
    "Old": 2819,
    "Skool": 2820,
    "万斯": 2821,
    "板鞋": 2822,
    "鞋款": 2823,
    "帆布": 2824,
    "毛皮": 2825,
    "侧边": 2826,
    "Stripe": 2827,
    "滑板": 2828,
    "棋盘": 2829,
    "华夫": 2830,
    "拼接": 2831,
    "验货": 2832,
    "街头": 2833,
    "Jazz": 2834,
    "条纹": 2835,
    "红蓝": 2836,
    "厚底": 2837,
    "FILA": 2838,
    "斐乐": 2839,
    "4cm": 2840,
    "震中": 2841,
    "修饰": 2842,
    "增高": 2843,
    "正码": 2844,
    "走路": 2845,
    "棒球帽": 2846,
    "MLB": 2847,
    "弯檐": 2848,
    "LA": 2849,
    "纽约": 2850,
    "纯棉": 2851,
    "标志": 2852,
    "道奇": 2853,
    "NY": 2854,
    "洋基队": 2855,
    "头围": 2856,
    "洛杉矶": 2857,
    "后扣": 2858,
    "各种": 2859,
    "队徽": 2860,
    "出游": 2861,
    "防伪": 2862,
    "吊牌": 2863,
    "单品": 2864,
    "饰边": 2865,
    "Coach": 2866,
    "拉链": 2867,
    "隔层": 2868,
    "防刮": 2869,
    "五金配件": 2870,
    "托特": 2871,
    "闭合": 2872,
    "Signature": 2873,
    "老花": 2874,
    "顶部": 2875,
    "真皮": 2876,
    "涂层": 2877,
    "美国": 2878,
    "轻奢": 2879,
    "接触": 2880,
    "文件": 2881,
    "物品": 2882,
    "磨损": 2883,
    "尖锐": 2884,
    "保养": 2885,
    "开箱": 2886,
    "生产日期": 2887,
    "食用": 2888,
    "临期": 2889,
    "死蟹": 2890,
    "前用": 2891,
    "立即": 2892,
    "全程": 2893,
    "季节": 2894,
    "阳澄湖": 2895,
    "鲜活": 2896,
    "母蟹": 2897,
    "收到": 2898,
    "食品类": 2899,
    "礼盒": 2900,
    "直供": 2901,
    "最佳": 2902,
    "当天": 2903,
    "标注": 2904,
    "刷洗": 2905,
    "包赔": 2906,
    "冷藏": 2907,
    "一经": 2908,
    "速运": 2909,
    "顺丰": 2910,
    "清水": 2911,
    "烹饪": 2912,
    "干净": 2913,
    "大闸蟹": 2914,
    "两母": 2915,
    "公蟹": 2916,
    "只装": 2917,
    "原产地": 2918,
    "保鲜": 2919,
    "除外": 2920,
    "脆爽": 2921,
    "季节性": 2922,
    "32mm": 2923,
    "斤装": 2924,
    "个别": 2925,
    "车厘子": 2926,
    "现象": 2927,
    "进口": 2928,
    "口感": 2929,
    "产地": 2930,
    "原箱": 2931,
    "甜度": 2932,
    "大果": 2933,
    "JJJ": 2934,
    "当季": 2935,
    "厘子": 2936,
    "压伤": 2937,
    "发货": 2938,
    "进口车": 2939,
    "智利": 2940,
    "空运": 2941,
    "完毕": 2942,
    "核桃": 2943,
    "三只": 2944,
    "包含": 2945,
    "松鼠": 2946,
    "蔓越莓": 2947,
    "大礼包": 2948,
    "巴旦": 2949,
    "小包装": 2950,
    "腰果": 2951,
    "榛子": 2952,
    "部位": 2953,
    "放入": 2954,
    "眼肉": 2955,
    "阴凉": 2956,
    "两面": 2957,
    "调整": 2958,
    "果干": 2959,
    "请勿": 2960,
    "送礼": 2961,
    "常温": 2962,
    "通常": 2963,
    "前移": 2964,
    "真空": 2965,
    "办公室": 2966,
    "西冷": 2967,
    "牛排": 2968,
    "片装": 2969,
    "佳品": 2970,
    "牛肉": 2971,
    "原切": 2972,
    "150g": 2973,
    "携带": 2974,
    "一袋": 2975,
    "发现": 2976,
    "澳洲": 2977,
    "片约": 2978,
    "阳光": 2979,
    "均衡": 2980,
    "直射": 2981,
    "菲力": 2982,
    "破损": 2983,
    "解冻": 2984,
    "营养": 2985,
    "干燥": 2986,
    "整箱": 2987,
    "无糖": 2988,
    "适量": 2989,
    "糖醇": 2990,
    "糖尿病": 2991,
    "超高温": 2992,
    "更佳": 2993,
    "血糖": 2994,
    "乳酸菌": 2995,
    "引起": 2996,
    "患者": 2997,
    "100ml": 2998,
    "白桃": 2999,
    "代糖": 3000,
    "开封": 3001,
    "胀气": 3002,
    "高蛋白": 3003,
    "纯牛奶": 3004,
    "青瓜": 3005,
    "元气": 3006,
    "250ml": 3007,
    "有机": 3008,
    "蛋白": 3009,
    "漏液": 3010,
    "森林": 3011,
    "赤藓": 3012,
    "480ml": 3013,
    "升高": 3014,
    "奶源": 3015,
    "冰镇": 3016,
    "气泡": 3017,
    "特仑苏": 3018,
    "卡曼": 3019,
    "口味": 3020,
    "灭菌": 3021,
    "瓶子": 3022,
    "饮用": 3023,
    "蒙牛": 3024,
    "白酒": 3025,
    "茅台酒": 3026,
    "茅台": 3027,
    "500ml": 3028,
    "国酒": 3029,
    "传统工艺": 3030,
    "四年": 3031,
    "瓶装": 3032,
    "酱香型": 3033,
    "贮存": 3034,
    "贵州": 3035,
    "飞天": 3036,
    "发酵": 3037,
    "原厂": 3038,
    "酿造": 3039,
    "固态": 3040,
    "纯粮": 3041,
    "每人": 3042,
    "实名": 3043,
    "限量": 3044,
    "为准": 3045,
    "未成年人": 3046,
    "饮酒": 3047,
    "正规": 3048,
    "验证": 3049,
    "每期": 3050,
    "购买": 3051,
    "忌酒": 3052,
    "下单": 3053,
    "限量供应": 3054,
    "禁止": 3055,
    "孕妇": 3056,
    "底料": 3057,
    "火锅": 3058,
    "海底": 3059,
    "川味": 3060,
    "正宗": 3061,
    "原料": 3062,
    "牛油": 3063,
    "200g": 3064,
    "实惠": 3065,
    "麻辣": 3066,
    "麻辣火锅": 3067,
    "鲜香": 3068,
    "豆瓣": 3069,
    "花椒": 3070,
    "郫县": 3071,
    "汉源": 3072,
    "用途": 3073,
    "清汤": 3074,
    "做菜": 3075,
    "煮面": 3076,
    "番茄": 3077,
    "巧克力": 3078,
    "费列罗": 3079,
    "粒装": 3080,
    "意大利": 3081,
    "必备": 3082,
    "礼盒装": 3083,
    "Ferrero": 3084,
    "果酱": 3085,
    "内层": 3086,
    "Rocher": 3087,
    "榛果": 3088,
    "外层": 3089,
    "威化": 3090,
    "旺旺": 3091,
    "浪味": 3092,
    "雪饼": 3093,
    "小馒头": 3094,
    "有面": 3095,
    "留意": 3096,
    "旺仔": 3097,
    "仙贝": 3098,
    "牛奶糖": 3099,
    "具体内容": 3100,
    "年货": 3101,
    "过敏原": 3102,
    "停用": 3103,
    "内侧": 3104,
    "肤色": 3105,
    "富含": 3106,
    "早晚": 3107,
    "皮肤": 3108,
    "日本": 3109,
    "源自": 3110,
    "改善": 3111,
    "酵母": 3112,
    "暗沉": 3113,
    "II": 3114,
    "毛孔": 3115,
    "手腕": 3116,
    "提亮": 3117,
    "收缩": 3118,
    "不适": 3119,
    "粗大": 3120,
    "230ml": 3121,
    "肤质": 3122,
    "耳后": 3123,
    "尤其": 3124,
    "拆封": 3125,
    "精华": 3126,
    "PITERA": 3127,
    "洁面": 3128,
    "神仙": 3129,
    "粗糙": 3130,
    "肌肤": 3131,
    "内用": 3132,
    "天然": 3133,
    "SK": 3134,
    "产物": 3135,
    "爽肤水": 3136,
    "之后": 3137,
    "特润": 3138,
    "50ml": 3139,
    "小棕瓶": 3140,
    "Chronolux": 3141,
    "第七代": 3142,
    "肌透": 3143,
    "淡纹": 3144,
    "二裂": 3145,
    "修护": 3146,
    "CB": 3147,
    "雅诗兰黛": 3148,
    "抗氧化": 3149,
    "Lauder": 3150,
    "抗老": 3151,
    "Estee": 3152,
    "细纹": 3153,
    "后续": 3154,
    "吸收": 3155,
    "精粹": 3156,
    "兰蔻": 3157,
    "Lancome": 3158,
    "屏障": 3159,
    "菌群": 3160,
    "小黑": 3161,
    "种益": 3162,
    "强韧": 3163,
    "平衡": 3164,
    "生元": 3165,
    "肌底": 3166,
    "面霜": 3167,
    "顺序": 3168,
    "法国": 3169,
    "按压": 3170,
    "Miracle": 3171,
    "泛红": 3172,
    "Broth": 3173,
    "之谜": 3174,
    "密封": 3175,
    "深海": 3176,
    "海蓝": 3177,
    "指间": 3178,
    "Mer": 3179,
    "需先": 3180,
    "强效": 3181,
    "La": 3182,
    "活性": 3183,
    "面部": 3184,
    "神奇": 3185,
    "乳化": 3186,
    "巨藻": 3187,
    "60ml": 3188,
    "PRO": 3189,
    "于眼": 3190,
    "欧莱雅": 3191,
    "全脸": 3192,
    "XYLANE": 3193,
    "法令": 3194,
    "抬头纹": 3195,
    "轻点": 3196,
    "复颜": 3197,
    "成分": 3198,
    "周至": 3199,
    "熨斗": 3200,
    "淡化": 3201,
    "充盈": 3202,
    "眼霜": 3203,
    "平价": 3204,
    "尿酸": 3205,
    "米粒": 3206,
    "玻色": 3207,
    "LOREAL": 3208,
    "30ml": 3209,
    "干纹": 3210,
    "有美白": 3211,
    "OLAY": 3212,
    "清爽": 3213,
    "光感": 3214,
    "水感": 3215,
    "质地": 3216,
    "频率": 3217,
    "玉兰油": 3218,
    "耐受": 3219,
    "烟酰胺": 3220,
    "黄气": 3221,
    "淡斑": 3222,
    "白光": 3223,
    "小白瓶": 3224,
    "美白": 3225,
    "国货": 3226,
    "开瓶": 3227,
    "通路": 3228,
    "粘腻": 3229,
    "抗糖": 3230,
    "经常": 3231,
    "抗氧抗": 3232,
    "硫因": 3233,
    "抗初": 3234,
    "PROYA": 3235,
    "熬夜": 3236,
    "麦角": 3237,
    "青素": 3238,
    "珀莱雅": 3239,
    "双抗": 3240,
    "松垮": 3241,
    "抗氧": 3242,
    "植物": 3243,
    "青刺果": 3244,
    "症状": 3245,
    "油腻": 3246,
    "特护": 3247,
    "医生": 3248,
    "温和": 3249,
    "50g": 3250,
    "刺痛": 3251,
    "酒精": 3252,
    "药妆": 3253,
    "Winona": 3254,
    "香精": 3255,
    "色素": 3256,
    "薇诺娜": 3257,
    "舒缓": 3258,
    "厚重": 3259,
    "受损": 3260,
    "皮肤科": 3261,
    "马齿苋": 3262,
    "保湿": 3263,
    "瘙痒": 3264,
    "舒敏": 3265,
    "亮片": 3266,
    "熊猫": 3267,
    "派对": 3268,
    "动物": 3269,
    "盘可选": 3270,
    "细腻": 3271,
    "鳄鱼": 3272,
    "日记": 3273,
    "晕染": 3274,
    "初次": 3275,
    "妆容": 3276,
    "探险家": 3277,
    "珠光": 3278,
    "Diary": 3279,
    "约会": 3280,
    "哑光": 3281,
    "Perfect": 3282,
    "斑虎": 3283,
    "完美": 3284,
    "眼影": 3285,
    "粉质": 3286,
    "显色": 3287,
    "十二": 3288,
    "小猪": 3289,
    "正红": 3290,
    "热门": 3291,
    "魅可": 3292,
    "缎光": 3293,
    "口红": 3294,
    "Woo": 3295,
    "子弹头": 3296,
    "Ruby": 3297,
    "MAC": 3298,
    "奶茶": 3299,
    "水润": 3300,
    "Whirl": 3301,
    "Mocha": 3302,
    "色号": 3303,
    "Chili": 3304,
    "遮盖力": 3305,
    "小巧": 3306,
    "玫瑰": 3307,
    "度高": 3308,
    "小辣椒": 3309,
    "加拿大": 3310,
    "十足": 3311,
    "圣罗兰": 3312,
    "复刻": 3313,
    "棕红": 3314,
    "棕为": 3315,
    "无法": 3316,
    "细管": 3317,
    "黑金": 3318,
    "YSL": 3319,
    "金条": 3320,
    "陶土": 3321,
    "赤裸": 3322,
    "丝绒": 3323,
    "红棕": 3324,
    "野餐": 3325,
    "帐篷": 3326,
    "银胶": 3327,
    "气味": 3328,
    "定期维护": 3329,
    "公园": 3330,
    "通风处": 3331,
    "防晒": 3332,
    "指数": 3333,
    "状态": 3334,
    "防雨": 3335,
    "速开": 3336,
    "PU3000": 3337,
    "防风": 3338,
    "去除": 3339,
    "定期": 3340,
    "探险者": 3341,
    "体积": 3342,
    "晾晒": 3343,
    "收纳袋": 3344,
    "UPF50": 3345,
    "露营": 3346,
    "双层": 3347,
    "手柄": 3348,
    "轻便": 3349,
    "铝合金": 3350,
    "脚套": 3351,
    "质保": 3352,
    "锁扣": 3353,
    "握感": 3354,
    "钨钢": 3355,
    "迪卡侬": 3356,
    "EVA": 3357,
    "仅约": 3358,
    "长度": 3359,
    "三节": 3360,
    "泥托": 3361,
    "单根": 3362,
    "Decathlon": 3363,
    "根装": 3364,
    "健走": 3365,
    "锁紧": 3366,
    "伸缩": 3367,
    "徒步": 3368,
    "务必": 3369,
    "发泡": 3370,
    "280g": 3371,
    "登山": 3372,
    "135cm": 3373,
    "10mm": 3374,
    "回弹性": 3375,
    "Keep": 3376,
    "室内运动": 3377,
    "健身操": 3378,
    "变形": 3379,
    "瑜伽": 3380,
    "擦拭": 3381,
    "晾干": 3382,
    "干湿": 3383,
    "清洁剂": 3384,
    "普拉提": 3385,
    "加厚": 3386,
    "80cm": 3387,
    "NBR": 3388,
    "纹理": 3389,
    "拉伸": 3390,
    "柔软": 3391,
    "使用指南": 3392,
    "女士": 3393,
    "杠铃": 3394,
    "家用": 3395,
    "循序渐进": 3396,
    "哑铃": 3397,
    "六角": 3398,
    "男士": 3399,
    "节省": 3400,
    "套装": 3401,
    "滚动": 3402,
    "包胶": 3403,
    "20kg": 3404,
    "受伤": 3405,
    "附送": 3406,
    "塑形": 3407,
    "亲肤": 3408,
    "Nulu": 3409,
    "收腹": 3410,
    "Lululemon": 3411,
    "四向": 3412,
    "紧绷": 3413,
    "贴身": 3414,
    "对应": 3415,
    "冷水": 3416,
    "裸感": 3417,
    "柠檬": 3418,
    "高腰": 3419,
    "弹力": 3420,
    "露露": 3421,
    "无物": 3422,
    "腰围": 3423,
    "Align": 3424,
    "完全": 3425,
    "头盔": 3426,
    "三层": 3427,
    "GTX": 3428,
    "WaterTight": 3429,
    "恶劣": 3430,
    "顶级": 3431,
    "攀登": 3432,
    "压胶": 3433,
    "专业级": 3434,
    "GORE": 3435,
    "高山": 3436,
    "喷雾": 3437,
    "Arc": 3438,
    "3L": 3439,
    "AR": 3440,
    "中间层": 3441,
    "兼容": 3442,
    "冲锋衣": 3443,
    "活动": 3444,
    "TEX": 3445,
    "性能": 3446,
    "teryx": 3447,
    "始祖鸟": 3448,
    "便于": 3449,
    "Beta": 3450,
    "腋下": 3451,
    "帽型": 3452,
    "版型": 3453,
    "YONEX": 3454,
    "碳纤维": 3455,
    "头重": 3456,
    "连续": 3457,
    "选手": 3458,
    "天斧": 3459,
    "业余": 3460,
    "羽毛球": 3461,
    "拍套": 3462,
    "ASTROX": 3463,
    "羽毛球拍": 3464,
    "尼克斯": 3465,
    "厂商": 3466,
    "穿线": 3467,
    "高弹性": 3468,
    "强攻": 3469,
    "杀球": 3470,
    "进攻型": 3471,
    "进阶": 3472,
    "碳素": 3473,
    "新次": 3474,
    "磅数": 3475,
    "自行": 3476,
    "SPALDING": 3477,
    "场地": 3478,
    "充气": 3479,
    "气密性": 3480,
    "女子": 3481,
    "丁基": 3482,
    "男子": 3483,
    "604Y": 3484,
    "PU": 3485,
    "雨天": 3486,
    "手感": 3487,
    "符合": 3488,
    "青少年": 3489,
    "业余比赛": 3490,
    "篮球": 3491,
    "NBA": 3492,
    "FIBA": 3493,
    "指定": 3494,
    "用球": 3495,
    "斯伯丁": 3496,
    "室内外": 3497,
    "抗疲劳": 3498,
    "CAMEL": 3499,
    "试穿": 3500,
    "骆驼": 3501,
    "应对": 3502,
    "护脚": 3503,
    "确认": 3504,
    "小雨": 3505,
    "减震": 3506,
    "抓地力": 3507,
    "登山鞋": 3508,
    "无感": 3509,
    "PELLIOT": 3510,
    "防护": 3511,
    "泼水": 3512,
    "伯希和": 3513,
    "紫外线": 3514,
    "微雨": 3515,
    "暴晒": 3516,
    "夏秋": 3517,
    "骑行": 3518,
    "手洗": 3519,
    "户外活动": 3520,
    "用电": 3521,
    "记忆": 3522,
    "老化": 3523,
    "抗菌": 3524,
    "颈部": 3525,
    "博士": 3526,
    "可换": 3527,
    "气孔": 3528,
    "内可退": 3529,
    "线路": 3530,
    "说明书": 3531,
    "轻微": 3532,
    "曲线": 3533,
    "颈椎": 3534,
    "人体工学": 3535,
    "定期检查": 3536,
    "枕套": 3537,
    "闷热": 3538,
    "匹配": 3539,
    "水源": 3540,
    "枕头": 3541,
    "家居用品": 3542,
    "承托": 3543,
    "内可换": 3544,
    "更换": 3545,
    "远离": 3546,
    "类产品": 3547,
    "消散": 3548,
    "十五天": 3549,
    "拆洗": 3550,
    "电压": 3551,
    "类如有": 3552,
    "起球": 3553,
    "被套": 3554,
    "轮换": 3555,
    "花型": 3556,
    "四件套": 3557,
    "家纺": 3558,
    "漂白": 3559,
    "深浅": 3560,
    "床单": 3561,
    "印染": 3562,
    "精梳棉": 3563,
    "褪色": 3564,
    "缩水": 3565,
    "分开": 3566,
    "知名": 3567,
    "水星": 3568,
    "温水": 3569,
    "床上": 3570,
    "豁免": 3571,
    "蓝光": 3572,
    "危害": 3573,
    "色温": 3574,
    "2700K": 3575,
    "台灯": 3576,
    "无频": 3577,
    "RG0": 3578,
    "6500K": 3579,
    "距离": 3580,
    "插拔": 3581,
    "开关": 3582,
    "阅读": 3583,
    "合适": 3584,
    "寿命": 3585,
    "延长": 3586,
    "保护视力": 3587,
    "频繁": 3588,
    "砧板": 3589,
    "磨刀": 3590,
    "骨头": 3591,
    "不锈钢": 3592,
    "注意安全": 3593,
    "刀具": 3594,
    "特殊": 3595,
    "刀刃": 3596,
    "ZWILLING": 3597,
    "锋利": 3598,
    "双立人": 3599,
    "三德刀": 3600,
    "专用": 3601,
    "厨刀": 3602,
    "砍刀": 3603,
    "件套": 3604,
    "刀架": 3605,
    "塑料": 3606,
    "木质": 3607,
    "配方": 3608,
    "水果刀": 3609,
    "德国": 3610,
    "不可": 3611,
    "剪刀": 3612,
    "不粘锅": 3613,
    "干烧": 3614,
    "炒锅": 3615,
    "锅盖": 3616,
    "可立": 3617,
    "导热": 3618,
    "锅铲": 3619,
    "养锅": 3620,
    "擦干": 3621,
    "并涂": 3622,
    "划伤": 3623,
    "一层": 3624,
    "烫手": 3625,
    "易清洗": 3626,
    "硅胶": 3627,
    "32cm": 3628,
    "燃气灶": 3629,
    "食用油": 3630,
    "少油": 3631,
    "薄壁": 3632,
    "带盖": 3633,
    "书籍": 3634,
    "搬运": 3635,
    "实色": 3636,
    "严选": 3637,
    "PP": 3638,
    "网易": 3639,
    "个装": 3640,
    "叠放": 3641,
    "透明": 3642,
    "两种": 3643,
    "把手": 3644,
    "50L": 3645,
    "每箱": 3646,
    "杂物": 3647,
    "放置": 3648,
    "承重": 3649,
    "无毒": 3650,
    "衣物": 3651,
    "维持": 3652,
    "杀灭": 3653,
    "AM10": 3654,
    "管道": 3655,
    "加湿器": 3656,
    "纯净水": 3657,
    "杀菌": 3658,
    "UV": 3659,
    "水中": 3660,
    "加湿": 3661,
    "细菌": 3662,
    "恒湿": 3663,
    "蒸馏水": 3664,
    "水箱": 3665,
    "理想": 3666,
    "保持清洁": 3667,
    "倾倒": 3668,
    "电热": 3669,
    "大功率": 3670,
    "取暖器": 3671,
    "秋冬": 3672,
    "易燃物品": 3673,
    "断电": 3674,
    "速热": 3675,
    "2000W": 3676,
    "安全可靠": 3677,
    "石墨": 3678,
    "摇头": 3679,
    "广角": 3680,
    "密闭": 3681,
    "恒温": 3682,
    "取暖": 3683,
    "秒速": 3684,
    "升温": 3685,
    "送暖": 3686,
    "整夜": 3687,
    "空气流通": 3688,
    "权限": 3689,
    "每种": 3690,
    "尚未": 3691,
    "收货": 3692,
    "手动": 3693,
    "倒计时": 3694,
    "取消": 3695,
    "Pending": 3696,
    "修改": 3697,
    "付款": 3698,
    "剩余": 3699,
    "内未": 3700,
    "协助": 3701,
    "期限": 3702,
    "退款": 3703,
    "预计": 3704,
    "Paid": 3705,
    "触发": 3706,
    "等待": 3707,
    "申请": 3708,
    "催促": 3709,
    "Shipped": 3710,
    "查看": 3711,
    "异常": 3712,
    "退货": 3713,
    "天未": 3714,
    "Delivered": 3715,
    "详情": 3716,
    "扣款": 3717,
    "再次": 3718,
    "缺货": 3719,
    "原因": 3720,
    "Cancelled": 3721,
    "恢复": 3722,
    "至原": 3723,
    "进度": 3724,
    "Refunded": 3725,
    "退回": 3726,
    "FTB": 3727,
    "YYYYMMDD": 3728,
    "FTB2024061712345678": 3729,
    "获取": 3730,
    "精确": 3731,
    "例如": 3732,
    "全部": 3733,
    "订单号": 3734,
    "所有": 3735,
    "今日": 3736,
    "范围": 3737,
    "手机号": 3738,
    "用户名": 3739,
    "商品质量": 3740,
    "实付": 3741,
    "联系电话": 3742,
    "总额": 3743,
    "单价": 3744,
    "运费": 3745,
    "流水号": 3746,
    "小计": 3747,
    "快递": 3748,
    "收货人": 3749,
    "记录": 3750,
    "拦截": 3751,
    "时机": 3752,
    "注意事项": 3753,
    "需走": 3754,
    "后果": 3755,
    "直接": 3756,
    "关闭": 3757,
    "超时": 3758,
    "税号": 3759,
    "抬头": 3760,
    "折扣": 3761,
    "构成": 3762,
    "优惠券": 3763,
    "满减": 3764,
    "常见": 3765,
    "限时": 3766,
    "杀价": 3767,
    "特价": 3768,
    "第二件": 3769,
    "额外": 3770,
    "门槛": 3771,
    "半价": 3772,
    "减券": 3773,
    "买二送": 3774,
    "全额": 3775,
    "降价": 3776,
    "差价": 3777,
    "退还": 3778,
    "之间": 3779,
    "延迟": 3780,
    "内会": 3781,
    "截图": 3782,
    "为什么": 3783,
    "A1": 3784,
    "自动更新": 3785,
    "Q1": 3786,
    "A2": 3787,
    "Q3": 3788,
    "Q2": 3789,
    "拨打": 3790,
    "A3": 3791,
    "怎么办": 3792,
    "核实": 3793,
    "代签": 3794,
    "同事": 3795,
    "门卫": 3796,
    "重新": 3797,
    "代收": 3798,
    "确实": 3799,
    "A4": 3800,
    "是否": 3801,
    "Q4": 3802,
    "一旦": 3803,
    "提交": 3804,
    "其他": 3805,
    "A5": 3806,
    "Q5": 3807,
    "Q6": 3808,
    "如需": 3809,
    "A6": 3810,
    "Q7": 3811,
    "A7": 3812,
    "发送": 3813,
    "列表": 3814,
    "忘记": 3815,
    "邮件": 3816,
    "保留": 3817,
    "A8": 3818,
    "Q8": 3819,
    "Q9": 3820,
    "多件": 3821,
    "A9": 3822,
    "请以": 3823,
    "同一个": 3824,
    "大促": 3825,
    "次日": 3826,
    "多久": 3827,
    "单件": 3828,
    "纸质": 3829,
    "邮寄": 3830,
    "发送至": 3831,
    "Q10": 3832,
    "A10": 3833,
    "如下": 3834,
    "规则": 3835,
    "类目": 3836,
    "本身": 3837,
    "日内": 3838,
    "条件": 3839,
    "之日起": 3840,
    "性质": 3841,
    "较大": 3842,
    "定制": 3843,
    "个性化": 3844,
    "袜类": 3845,
    "电子卡": 3846,
    "数字化": 3847,
    "口罩": 3848,
    "激活": 3849,
    "试用": 3850,
    "后易": 3851,
    "贬损": 3852,
    "卫生用品": 3853,
    "不宜": 3854,
    "内衣": 3855,
    "电子书": 3856,
    "易腐": 3857,
    "险则": 3858,
    "发错": 3859,
    "描述": 3860,
    "双方": 3861,
    "货运费": 3862,
    "不符": 3863,
    "漏发": 3864,
    "保险公司": 3865,
    "协商": 3866,
    "型号": 3867,
    "脏污": 3868,
    "严重": 3869,
    "电子设备": 3870,
    "假冒伪劣": 3871,
    "一致": 3872,
    "瑕疵": 3873,
    "明显": 3874,
    "做工": 3875,
    "定义": 3876,
    "换货": 3877,
    "日后": 3878,
    "填写": 3879,
    "上传": 3880,
    "图片": 3881,
    "清晰": 3882,
    "详细描述": 3883,
    "想要": 3884,
    "找到": 3885,
    "货漏": 3886,
    "至少": 3887,
    "第一步": 3888,
    "发起": 3889,
    "发出": 3890,
    "寄回": 3891,
    "拒绝": 3892,
    "第三步": 3893,
    "第二步": 3894,
    "申诉": 3895,
    "原路": 3896,
    "微信": 3897,
    "第四步": 3898,
    "支付宝": 3899,
    "抵扣": 3900,
    "形式": 3901,
    "信用卡": 3902,
    "银行卡": 3903,
    "没到": 3904,
    "上述": 3905,
    "垫付": 3906,
    "货等": 3907,
    "单独": 3908,
    "报销": 3909,
    "一并": 3910,
    "如原": 3911,
    "转账": 3912,
    "只能": 3913,
    "注销": 3914,
    "现金": 3915,
    "过期": 3916,
    "已过期": 3917,
    "扣除": 3918,
    "比例": 3919,
    "有效期": 3920,
    "秒杀": 3921,
    "办理": 3922,
    "时如": 3923,
    "遗失": 3924,
    "手续": 3925,
    "后处理": 3926,
    "作废": 3927,
    "无需": 3928,
    "配合": 3929,
    "无误": 3930,
    "验收": 3931,
    "步骤": 3932,
    "划痕": 3933,
    "谨慎": 3934,
    "完整": 3935,
    "污渍": 3936,
    "损坏": 3937,
    "具体情况": 3938,
    "不再": 3939,
    "赠品": 3940,
    "偏好": 3941,
    "人民币": 3942,
    "绑定": 3943,
    "各大": 3944,
    "余额": 3945,
    "借记卡": 3946,
    "零钱": 3947,
    "银联": 3948,
    "礼品": 3949,
    "发售": 3950,
    "对公": 3951,
    "分次": 3952,
    "等级": 3953,
    "限额": 3954,
    "张卡": 3955,
    "单笔": 3956,
    "验证码": 3957,
    "SSL": 3958,
    "短信": 3959,
    "发现异常": 3960,
    "多重": 3961,
    "页面": 3962,
    "加密传输": 3963,
    "密码": 3964,
    "适中": 3965,
    "速度": 3966,
    "常规": 3967,
    "覆盖面广": 3968,
    "范围广": 3969,
    "速递": 3970,
    "圆通": 3971,
    "中通": 3972,
    "当日": 3973,
    "直邮": 3974,
    "家具": 3975,
    "直发": 3976,
    "进口商品": 3977,
    "生鲜食品": 3978,
    "新疆": 3979,
    "偏远地区": 3980,
    "二线": 3981,
    "县城": 3982,
    "三四": 3983,
    "西藏": 3984,
    "元免": 3985,
    "未满": 3986,
    "另计": 3987,
    "增加": 3988,
    "险后": 3989,
    "关注": 3990,
    "取件": 3991,
    "位置": 3992,
    "失败": 3993,
    "不详": 3994,
    "已揽收": 3995,
    "正在": 3996,
    "派送": 3997,
    "途中": 3998,
    "派件": 3999,
    "查收": 4000,
    "拒收": 4001,
    "错误": 4002,
    "或本": 4003,
    "或分": 4004,
    "重试": 4005,
    "多次": 4006,
    "优惠活动": 4007,
    "商品价格": 4008,
    "一样": 4009,
    "变化": 4010,
    "看到": 4011,
    "涨价": 4012,
    "备注": 4013,
    "如对": 4014,
    "疑问": 4015,
    "地区": 4016,
    "最优": 4017,
    "转运": 4018,
    "港澳台地区": 4019,
    "大陆": 4020,
    "港澳台": 4021,
    "系统维护": 4022,
    "长途运输": 4023,
    "到达": 4024,
    "应当": 4025,
    "如遇": 4026,
    "货再": 4027,
    "先验": 4028,
    "允许": 4029,
    "收件人": 4030,
    "前先": 4031,
    "低价": 4032,
    "特点": 4033,
    "抢购": 4034,
    "Seckill": 4035,
    "推出": 4036,
    "超低价": 4037,
    "固定": 4038,
    "场次": 4039,
    "先到": 4040,
    "出售": 4041,
    "先得": 4042,
    "有限": 4043,
    "原价": 4044,
    "限购": 4045,
    "释放": 4046,
    "女神": 4047,
    "中旬": 4048,
    "暑期": 4049,
    "日至": 4050,
    "赠送": 4051,
    "满额": 4052,
    "店铺": 4053,
    "爆款": 4054,
    "满赠": 4055,
    "优先": 4056,
    "响应": 4057,
    "购物车": 4058,
    "加入": 4059,
    "提前": 4060,
    "铂金": 4061,
    "金卡": 4062,
    "普通": 4063,
    "银卡": 4064,
    "特权": 4065,
    "生日": 4066,
    "双倍": 4067,
    "上门": 4068,
    "分享": 4069,
    "新品": 4070,
    "优先购买": 4071,
    "实物": 4072,
    "奖励": 4073,
    "当年": 4074,
    "签到": 4075,
    "日前": 4076,
    "次年": 4077,
    "晒单": 4078,
    "每次": 4079,
    "兑换": 4080,
    "降级": 4081,
    "年底": 4082,
    "统计": 4083,
    "保级": 4084,
    "不设": 4085,
    "元减": 4086,
    "最低": 4087,
    "仅限": 4088,
    "叠加": 4089,
    "不予": 4090,
    "同一": 4091,
    "拆分": 4092,
    "失效": 4093,
    "可退回": 4094,
    "每张": 4095,
    "领取": 4096,
    "抽奖": 4097,
    "新人": 4098,
    "准备": 4099,
    "不到": 4100,
    "激增": 4101,
    "尽全力": 4102,
    "巨大": 4103,
    "平日": 4104,
    "有所": 4105,
    "一般": 4106,
    "耐心": 4107,
    "尽快": 4108,
    "这么": 4109,
    "时候": 4110,
    "清算": 4111,
    "每年": 4112,
    "一张": 4113,
    "提醒您": 4114,
    "不了": 4115,
    "同等": 4116,
    "默认": 4117,
    "下载": 4118,
    "法律效力": 4119,
    "打印": 4120,
    "开票": 4121,
    "虚拟": 4122,
    "注明": 4123,
    "效力": 4124,
    "名称": 4125,
    "入账": 4126,
    "纳税人": 4127,
    "银行账号": 4128,
    "核对": 4129,
    "专票": 4130,
    "证明": 4131,
    "更改": 4132,
    "开户银行": 4133,
    "变更": 4134,
    "重开": 4135,
    "开发票": 4136,
    "办公用品": 4137,
    "税务": 4138,
    "如实": 4139,
    "需将": 4140,
    "开成": 4141,
    "国家税务": 4142,
    "补开": 4143,
    "QQ": 4144,
    "接收": 4145,
    "昵称": 4146,
    "头像": 4147,
    "相同": 4148,
    "等易": 4149,
    "多个": 4150,
    "特殊符号": 4151,
    "姓名": 4152,
    "不要": 4153,
    "小写字母": 4154,
    "拼音": 4155,
    "找回": 4156,
    "被盗": 4157,
    "报警": 4158,
    "冻结": 4159,
    "篡改": 4160,
    "损失": 4161,
    "话术": 4162,
    "中大奖": 4163,
    "可疑": 4164,
    "缴费": 4165,
    "索要": 4166,
    "遇到": 4167,
    "链接": 4168,
    "陌生人": 4169,
    "相信": 4170,
    "绝不会": 4171,
    "陌生": 4172,
    "汇款": 4173,
    "设置": 4174,
    "来自": 4175,
    "临时": 4176,
    "须知": 4177,
    "冷静": 4178,
    "违反": 4179,
    "恶意": 4180,
    "正式": 4181,
    "期后": 4182,
    "清零": 4183,
    "轻信": 4184,
    "专人": 4185,
    "任何": 4186,
    "声称": 4187,
    "刷单": 4188,
    "重置": 4189,
    "收不到": 4190,
    "造成": 4191,
    "信号": 4192,
    "举报": 4193,
    "手机短信": 4194,
    "垃圾箱": 4195,
    "稍等片刻": 4196,
    "联系方式": 4197,
    "用户服务": 4198,
    "中英文": 4199,
    "法律事务": 4200,
    "legal": 4201,
    "小红书": 4202,
    "社交": 4203,
    "抖音": 4204,
    "微博": 4205,
    "邮编": 4206,
    "公司总部": 4207,
    "平均": 4208,
    "给予": 4209,
    "等待时间": 4210,
    "最终": 4211,
    "给出": 4212,
    "推诿": 4213,
    "解决问题": 4214,
    "专业培训": 4215,
    "礼貌": 4216,
    "敷衍": 4217,
    "经过": 4218,
    "删除": 4219,
    "保密": 4220,
    "泄露": 4221,
    "不向": 4222,
    "通话录音": 4223,
    "闪赔": 4224,
    "先行": 4225,
    "符合条件": 4226,
    "十倍": 4227,
    "赔偿": 4228,
    "追偿": 4229,
    "赔付": 4230,
    "略有": 4231,
    "轮休": 4232,
    "春节": 4233,
    "敬请": 4234,
    "谅解": 4235,
    "公告": 4236,
    "不可抗力": 4237,
    "短暂": 4238,
    "中断": 4239,
    "自然灾害": 4240,
    "意见反馈": 4241,
    "复杂": 4242,
    "处理完毕": 4243,
    "证据": 4244,
    "立场": 4245,
    "最终目标": 4246,
    "依据": 4247,
    "中立": 4248,
    "公平": 4249,
    "公正": 4250,
    "实事求是": 4251,
    "绩效考核": 4252,
    "动力": 4253,
    "邀请": 4254,
    "简洁": 4255,
    "涉及": 4256,
    "文明用语": 4257,
    "礼仪": 4258,
    "理性": 4259,
    "有人": 4260,
    "隐私": 4261,
    "不会": 4262,
    "警惕": 4263,
    "编号": 4264,
    "解答": 4265,
    "认真": 4266,
    "诉求": 4267,
    "四步": 4268,
    "心仪": 4269,
    "非常简单": 4270,
    "逐级": 4271,
    "促销": 4272,
    "关键词": 4273,
    "销量": 4274,
    "特定": 4275,
    "排序": 4276,
    "专区": 4277,
    "种类": 4278,
    "第十一章": 4279,
    "详见": 4280,
    "供需": 4281,
    "如秒": 4282,
    "抽查": 4283,
    "资质": 4284,
    "假冒": 4285,
    "真伪": 4286,
    "替代": 4287,
    "了解": 4288,
    "热销": 4289,
    "到货": 4290,
    "补货": 4291,
    "同类": 4292,
    "时会": 4293,
    "通知": 4294,
    "会为": 4295,
    "往返": 4296,
    "丢弃": 4297,
    "向下": 4298,
    "做出": 4299,
    "购买决策": 4300,
    "差评": 4301,
    "中评": 4302,
    "好评": 4303,
    "有图": 4304,
    "滑动": 4305,
    "送到": 4306,
    "因素": 4307,
    "A11": 4308,
    "丢失": 4309,
    "重发": 4310,
    "Q11": 4311,
    "员会": 4312,
    "A12": 4313,
    "问题解答": 4314,
    "Q12": 4315,
    "自取": 4316,
    "外包装": 4317,
    "自提": 4318,
    "周末": 4319,
    "自提点": 4320,
    "尽量": 4321,
    "取货": 4322,
    "Q13": 4323,
    "最新": 4324,
    "A13": 4325,
    "担心": 4326,
    "不用": 4327,
    "刷新": 4328,
    "Q14": 4329,
    "多长时间": 4330,
    "内到": 4331,
    "储蓄卡": 4332,
    "取决于": 4333,
    "A14": 4334,
    "A15": 4335,
    "一件": 4336,
    "只退": 4337,
    "几件": 4338,
    "Q15": 4339,
    "其中": 4340,
    "明细": 4341,
    "Q16": 4342,
    "少于": 4343,
    "达标": 4344,
    "VIP4": 4345,
    "VIP3": 4346,
    "VIP5": 4347,
    "VIP2": 4348,
    "Q17": 4349,
    "VIP1": 4350,
    "本年度": 4351,
    "A18": 4352,
    "Q18": 4353,
    "A19": 4354,
    "Q19": 4355,
    "会员中心": 4356,
    "A20": 4357,
    "转让": 4358,
    "变现": 4359,
    "回收": 4360,
    "Q20": 4361,
    "处理结果": 4362,
    "A21": 4363,
    "Q21": 4364,
    "二手市场": 4365,
    "A22": 4366,
    "保修期": 4367,
    "Q22": 4368,
    "延保": 4369,
    "Q23": 4370,
    "A23": 4371,
    "补发": 4372,
    "费用": 4373,
    "考虑": 4374,
    "如主": 4375,
    "A24": 4376,
    "Q24": 4377,
    "折算": 4378,
    "停止": 4379,
    "A25": 4380,
    "Q25": 4381,
    "告诉": 4382,
    "开通": 4383,
    "公共": 4384,
    "任何人": 4385,
    "以下几点": 4386,
    "记住": 4387,
    "A26": 4388,
    "勾选": 4389,
    "Q26": 4390,
    "驿站": 4391,
    "告知": 4392,
    "收取": 4393,
    "暂存": 4394,
    "暂时": 4395,
    "存放": 4396,
    "代为": 4397,
    "A27": 4398,
    "放在": 4399,
    "他人": 4400,
    "保管费": 4401,
    "便利店": 4402,
    "Q27": 4403,
    "闪退": 4404,
    "卸载": 4405,
    "重启": 4406,
    "清除": 4407,
    "重新安装": 4408,
    "下载安装": 4409,
    "网络连接": 4410,
    "尝试": 4411,
    "A28": 4412,
    "缓存": 4413,
    "版本": 4414,
    "Q28": 4415,
    "Q29": 4416,
    "A29": 4417,
    "保价": 4418,
    "Q30": 4419,
    "聊天记录": 4420,
    "介入": 4421,
    "途径": 4422,
    "以便": 4423,
    "A30": 4424,
    "不满": 4425,
    "合法权益": 4426,
    "摘要": 4427,
    "协议": 4428,
    "电子商务": 4429,
    "义务": 4430,
    "正当行为": 4431,
    "真实": 4432,
    "遵守": 4433,
    "从事": 4434,
    "违法": 4435,
    "炒信": 4436,
    "法律法规": 4437,
    "交易规则": 4438,
    "货款": 4439,
    "按质": 4440,
    "生效": 4441,
    "合同": 4442,
    "按时": 4443,
    "履行义务": 4444,
    "商业": 4445,
    "商标": 4446,
    "知识产权": 4447,
    "不得": 4448,
    "有权": 4449,
    "传播": 4450,
    "文字": 4451,
    "自身": 4452,
    "免责": 4453,
    "承担责任": 4454,
    "声明": 4455,
    "导致": 4456,
    "接受": 4457,
    "继续": 4458,
    "视为": 4459,
    "高度重视": 4460,
    "个人信息": 4461,
    "IP": 4462,
    "附近": 4463,
    "联系人": 4464,
    "加密技术": 4465,
    "传输": 4466,
    "签署": 4467,
    "监管部门": 4468,
    "司法机关": 4469,
    "同意": 4470,
    "撤回": 4471,
    "之前": 4472,
    "可撤回": 4473,
    "更正": 4474,
    "权利": 4475,
    "privacy": 4476,
    "广告": 4477,
    "攻击": 4478,
    "脚本": 4479,
    "干扰": 4480,
    "封禁": 4481,
    "大量": 4482,
    "以备": 4483,
    "正规渠道": 4484,
    "便宜": 4485,
    "纠纷": 4486,
    "私下交易": 4487,
    "自负": 4488,
    "绕过": 4489,
    "侮辱性": 4490,
    "询问": 4491,
    "感谢您": 4492,
    "概览": 4493,
    "正当": 4494,
    "中有": 4495,
    "欢迎": 4496,
    "知识库": 4497,
    "旨在": 4498,
    "单号": 4499,
    "FTB2024061512345678": 4500,
    "北京": 4501,
    "上海": 4502,
    "SF1234567890123": 4503,
    "示例": 4504,
    "买错": 4505,
    "如可": 4506,
    "受到限制": 4507,
    "可逆": 4508,
    "货后": 4509,
    "喜欢": 4510,
    "对比": 4511,
    "要点": 4512,
    "怎么样": 4513,
    "回答": 4514,
    "尽早": 4515,
    "元起": 4516,
    "充足": 4517,
    "错过": 4518,
    "随时": 4519,
    "建议您": 4520,
    "以免": 4521,
    "丢件": 4522,
    "如未": 4523,
    "停滞": 4524,
    "内蒙": 4525,
    "面单": 4526,
    "特写": 4527,
    "收件": 4528,
    "诚挚": 4529,
    "留用": 4530,
    "道歉": 4531,
    "变质": 4532,
    "部门": 4533,
    "漏电": 4534,
    "质检": 4535,
    "停止使用": 4536,
    "好处": 4537,
    "折至": 4538,
    "怎么": 4539,
    "复印件": 4540,
    "当月": 4541,
    "挂失": 4542,
    "发卡": 4543,
    "遗忘": 4544,
    "稍后": 4545,
    "再试": 4546,
    "一处": 4547,
    "多处": 4548,
    "中奖": 4549,
    "撤销": 4550,
    "期为": 4551,
    "选购指南": 4552,
    "选购": 4553,
    "精致": 4554,
    "入门级": 4555,
    "预算": 4556,
    "极致": 4557,
    "中端": 4558,
    "苹果": 4559,
    "存储空间": 4560,
    "RAM": 4561,
    "ROM": 4562,
    "起步": 4563,
    "中低端": 4564,
    "便携性": 4565,
    "高色域": 4566,
    "稳重": 4567,
    "R7": 4568,
    "R5": 4569,
    "i5": 4570,
    "R9": 4571,
    "中度": 4572,
    "重度": 4573,
    "2TB": 4574,
    "传感器": 4575,
    "防抖": 4576,
    "焦段": 4577,
    "RAW": 4578,
    "电池容量": 4579,
    "为佳": 4580,
    "4500mAh": 4581,
    "iOS": 4582,
    "功能丰富": 4583,
    "Android": 4584,
    "HarmonyOS": 4585,
    "折腾": 4586,
    "自由度": 4587,
    "保值": 4588,
    "国际品牌": 4589,
    "Redmi": 4590,
    "率高": 4591,
    "Neo5": 4592,
    "Neo9": 4593,
    "iQOO": 4594,
    "GT": 4595,
    "K70": 4596,
    "机型": 4597,
    "色域": 4598,
    "sRGB": 4599,
    "分辨率": 4600,
    "不错": 4601,
    "戴尔": 4602,
    "微星": 4603,
    "华硕": 4604,
    "XPS": 4605,
    "米选": 4606,
    "海信": 4607,
    "画质": 4608,
    "多少": 4609,
    "易用性": 4610,
    "LG": 4611,
    "TCL": 4612,
    "单门": 4613,
    "三门": 4614,
    "直冷": 4615,
    "混冷": 4616,
    "容声": 4617,
    "双门": 4618,
    "多门": 4619,
    "法式": 4620,
    "最省": 4621,
    "控制精度": 4622,
    "人选": 4623,
    "松下": 4624,
    "小天鹅": 4625,
    "效果": 4626,
    "脱水": 4627,
    "四口": 4628,
    "12kg": 4629,
    "烘干机": 4630,
    "省水": 4631,
    "波轮": 4632,
    "滚筒": 4633,
    "三口": 4634,
    "用水": 4635,
    "博世": 4636,
    "中央空调": 4637,
    "柜机": 4638,
    "匹数": 4639,
    "卧室": 4640,
    "平选": 4641,
    "甘油": 4642,
    "神经酰胺": 4643,
    "胖子": 4644,
    "油性皮肤": 4645,
    "按肤质": 4646,
    "刺激": 4647,
    "安热沙": 4648,
    "小金": 4649,
    "控油": 4650,
    "清透": 4651,
    "干性": 4652,
    "滋润": 4653,
    "大红": 4654,
    "年龄": 4655,
    "积雪草": 4656,
    "紧致": 4657,
    "清爽型": 4658,
    "松弛": 4659,
    "理肤泉": 4660,
    "资生堂": 4661,
    "油皮": 4662,
    "卸妆液": 4663,
    "纤长": 4664,
    "眼唇": 4665,
    "百搭色": 4666,
    "卸妆水": 4667,
    "色系": 4668,
    "新手": 4669,
    "眼线": 4670,
    "睫毛膏": 4671,
    "干皮": 4672,
    "浓密": 4673,
    "试色": 4674,
    "底妆": 4675,
    "大地": 4676,
    "卸妆油": 4677,
    "卸妆": 4678,
    "越野": 4679,
    "越野跑": 4680,
    "足弓": 4681,
    "大多数": 4682,
    "缓震型": 4683,
    "田径场": 4684,
    "扁平足": 4685,
    "缓震好": 4686,
    "稳定型": 4687,
    "比赛": 4688,
    "一项": 4689,
    "这是": 4690,
    "七日": 4691,
    "未损坏": 4692,
    "定作": 4693,
    "约定": 4694,
    "寄件": 4695,
    "享有": 4696,
    "寄出": 4697,
    "第五步": 4698,
    "愿意": 4699,
    "同型号": 4700,
    "修复": 4701,
    "展示": 4702,
    "举证": 4703,
    "就医": 4704,
    "化妆品": 4705,
    "冒烟": 4706,
    "紧急": 4707,
    "出现": 4708,
    "保修期限": 4709,
    "部件": 4710,
    "主板": 4711,
    "非人": 4712,
    "工艺": 4713,
    "制造": 4714,
    "缺陷": 4715,
    "材料": 4716,
    "摔落": 4717,
    "意外事故": 4718,
    "拆卸": 4719,
    "人为": 4720,
    "碰撞": 4721,
    "进水": 4722,
    "网点": 4723,
    "选项": 4724,
    "价保": 4725,
    "需在": 4726,
    "原有": 4727,
    "期限内": 4728,
    "定金": 4729,
    "如双": 4730,
    "预售": 4731,
    "指当": 4732,
    "停业": 4733,
    "拖延": 4734,
    "情形": 4735,
    "合理": 4736,
    "合法": 4737,
    "调查": 4738,
    "陈述": 4739,
    "更高": 4740,
    "简单": 4741,
    "机会": 4742,
    "信誉": 4743,
    "简化": 4744,
    "历史": 4745,
    "分为": 4746,
    "珠宝": 4747,
    "超出": 4748,
    "电子产品": 4749,
    "倍率": 4750,
    "礼包": 4751,
    "每月": 4752,
    "经理": 4753,
    "D2": 4754,
    "带图": 4755,
    "加成": 4756,
    "好友": 4757,
    "公益": 4758,
    "捐赠": 4759,
    "可兑换": 4760,
    "受到": 4761,
    "处罚": 4762,
    "天到": 4763,
    "D3": 4764,
    "打折": 4765,
    "用户注册": 4766,
    "E101": 4767,
    "E102": 4768,
    "朋友": 4769,
    "代买": 4770,
    "永久": 4771,
    "除非": 4772,
    "E103": 4773,
    "隐藏": 4774,
    "某些": 4775,
    "E104": 4776,
    "单个": 4777,
    "E105": 4778,
    "E106": 4779,
    "选错": 4780,
    "每笔": 4781,
    "凑够": 4782,
    "E108": 4783,
    "E107": 4784,
    "多笔": 4785,
    "更大": 4786,
    "E110": 4787,
    "区别": 4788,
    "意思": 4789,
    "E109": 4790,
    "普通商品": 4791,
    "紧张": 4792,
    "新创建": 4793,
    "表示": 4794,
    "判断": 4795,
    "可送": 4796,
    "鉴定": 4797,
    "显示器": 4798,
    "色差": 4799,
    "光线": 4800,
    "暂无": 4801,
    "综合": 4802,
    "好评率": 4803,
    "会计": 4804,
    "星为": 4805,
    "计入": 4806,
    "计算公式": 4807,
    "E115": 4808,
    "撰写": 4809,
    "被选为": 4810,
    "是从": 4811,
    "地点": 4812,
    "E116": 4813,
    "保税仓": 4814,
    "E117": 4815,
    "分成": 4816,
    "每个": 4817,
    "E118": 4818,
    "送货": 4819,
    "分别": 4820,
    "可更改": 4821,
    "E119": 4822,
    "E120": 4823,
    "有误": 4824,
    "仔细": 4825,
    "E121": 4826,
    "易碎品": 4827,
    "当场": 4828,
    "这种": 4829,
    "违规操作": 4830,
    "E122": 4831,
    "或大促": 4832,
    "E123": 4833,
    "不是": 4834,
    "E124": 4835,
    "E125": 4836,
    "身份验证": 4837,
    "E126": 4838,
    "E127": 4839,
    "E128": 4840,
    "即时": 4841,
    "E129": 4842,
    "E130": 4843,
    "E131": 4844,
    "活跃度": 4845,
    "无关": 4846,
    "积累": 4847,
    "E132": 4848,
    "按新": 4849,
    "E133": 4850,
    "E134": 4851,
    "避免浪费": 4852,
    "E135": 4853,
    "即将": 4854,
    "转移": 4855,
    "E136": 4856,
    "请谅解": 4857,
    "E137": 4858,
    "E138": 4859,
    "1Password": 4860,
    "一句": 4861,
    "Bitwarden": 4862,
    "管理工具": 4863,
    "符号": 4864,
    "首字母": 4865,
    "记忆法": 4866,
    "随机": 4867,
    "W2024ZfTBm100gsp": 4868,
    "句子": 4869,
    "采取": 4870,
    "E139": 4871,
    "E140": 4872,
    "身份证号": 4873,
    "经济损失": 4874,
    "请求": 4875,
    "网吧": 4876,
    "需注意": 4877,
    "键盘记录": 4878,
    "回家": 4879,
    "特别": 4880,
    "保护法": 4881,
    "严格遵守": 4882,
    "手持": 4883,
    "E144": 4884,
    "几点": 4885,
    "不想": 4886,
    "E145": 4887,
    "只是": 4888,
    "匿名": 4889,
    "E146": 4890,
    "人手": 4891,
    "希望": 4892,
    "E147": 4893,
    "复杂度": 4894,
    "较慢": 4895,
    "E148": 4896,
    "响应速度": 4897,
    "理解": 4898,
    "书面": 4899,
    "工号": 4900,
    "或会话": 4901,
    "职业": 4902,
    "一名": 4903,
    "E149": 4904,
    "简历": 4905,
    "互相帮助": 4906,
    "hr": 4907,
    "鼓励": 4908,
    "招聘": 4909,
    "认可": 4910,
    "打赏": 4911,
    "E150": 4912,
    "兴趣": 4913,
    "小费": 4914,
    "私下": 4915,
    "金钱": 4916,
    "宝贵": 4917,
    "服务满意": 4918,
    "F1": 4919,
    "偏袒": 4920,
    "纳税": 4921,
    "Integrity": 4922,
    "明码标价": 4923,
    "夸大": 4924,
    "负责": 4925,
    "诚实": 4926,
    "依法": 4927,
    "尊重": 4928,
    "歧视": 4929,
    "相待": 4930,
    "守信": 4931,
    "坚决执行": 4932,
    "真实有效": 4933,
    "入驻": 4934,
    "合格": 4935,
    "每一件": 4936,
    "愉快": 4937,
    "Quality": 4938,
    "品控": 4939,
    "质量检验": 4940,
    "Efficiency": 4941,
    "对待": 4942,
    "之所急": 4943,
    "真诚": 4944,
    "细小": 4945,
    "Care": 4946,
    "之所想": 4947,
    "样品": 4948,
    "许可": 4949,
    "清退": 4950,
    "保证金": 4951,
    "缴纳": 4952,
    "状况": 4953,
    "不合格者": 4954,
    "委托": 4955,
    "下架": 4956,
    "核查": 4957,
    "高风险": 4958,
    "抽检": 4959,
    "上架": 4960,
    "售出": 4961,
    "召回": 4962,
    "自检": 4963,
    "虚构": 4964,
    "美化": 4965,
    "误导": 4966,
    "标题": 4967,
    "参数": 4968,
    "低俗": 4969,
    "过度": 4970,
    "执法机关": 4971,
    "警告": 4972,
    "罚款": 4973,
    "导致用户": 4974,
    "法律责任": 4975,
    "移交": 4976,
    "限期": 4977,
    "最低价": 4978,
    "货源": 4979,
    "不合理": 4980,
    "高于": 4981,
    "年终": 4982,
    "活动期": 4983,
    "国庆": 4984,
    "下旬": 4985,
    "盗取": 4986,
    "冒用": 4987,
    "谋取": 4988,
    "利益": 4989,
    "暴力": 4990,
    "利用": 4991,
    "追回": 4992,
    "禁言": 4993,
    "短期": 4994,
    "认为": 4995,
    "权益保护法": 4996,
    "严格执行": 4997,
    "产品质量法": 4998,
    "设立": 4999,
    "绿色": 5000,
    "无纸化": 5001,
    "浪费": 5002,
    "能源消耗": 5003,
    "倡导": 5004,
    "公益活动": 5005,
    "环境保护": 5006,
    "医疗": 5007,
    "贫困地区": 5008,
    "举办": 5009,
    "就业机会": 5010,
    "慈善": 5011,
    "公益事业": 5012,
    "身心健康": 5013,
    "劳动": 5014,
    "关怀": 5015,
    "福利待遇": 5016,
    "供应商": 5017,
    "合作项目": 5018,
    "想法": 5019,
    "洽谈": 5020,
    "记者": 5021,
    "获取信息": 5022,
    "侵权行为": 5023,
    "签订": 5024,
    "法务": 5025,
    "www": 5026,
    "余杭区": 5027,
    "西路": 5028,
    "杭州市": 5029,
    "文一": 5030,
    "官方网站": 5031,
    "性别": 5032,
    "新手入门": 5033,
    "个人资料": 5034,
    "感兴趣": 5035,
    "省钱": 5036,
    "技巧": 5037,
    "G2": 5038,
    "凑单": 5039,
    "越高": 5040,
    "上市": 5041,
    "节日期间": 5042,
    "更替": 5043,
    "往往": 5044,
    "换季": 5045,
    "首发": 5046,
    "入手": 5047,
    "值得": 5048,
    "比价": 5049,
    "很大": 5050,
    "陷阱": 5051,
    "虚高": 5052,
    "先涨": 5053,
    "看起来": 5054,
    "低端": 5055,
    "以次充好": 5056,
    "高档": 5057,
    "精美": 5058,
    "变慢": 5059,
    "必要": 5060,
    "批量": 5061,
    "如同": 5062,
    "低价商品": 5063,
    "接近": 5064,
    "合并": 5065,
    "开售": 5066,
    "准时": 5067,
    "追评": 5068,
    "一段时间": 5069,
    "决定": 5070,
    "真的": 5071,
    "冲动": 5072,
    "急用": 5073,
    "后悔": 5074,
    "大大减少": 5075,
    "思考": 5076,
    "更优": 5077,
    "祝您": 5078,
    "纯牛": 5079,
    "第十三章": 5080,
    "众多": 5081,
    "韵达": 5082,
    "第十四章": 5083,
    "第十五章": 5084,
    "FAQ": 5085,
    "第十七章": 5086,
    "第十八章": 5087,
    "期内": 5088,
    "已取": 5089,
    "议在": 5090,
    "竭诚": 5091,
    "第十二章": 5092,
    "C2": 5093,
    "C3": 5094,
    "日起": 5095,
    "总理": 5096,
    "施行": 5097,
    "李强": 5098,
    "中华人民共和国国务院": 5099,
    "管理条例": 5100,
    "国务院": 5101,
    "常务会议": 5102,
    "公布": 5103,
    "现予": 5104,
    "非银行": 5105,
    "统称": 5106,
    "第四条": 5107,
    "损害": 5108,
    "为了": 5109,
    "监督管理": 5110,
    "条例": 5111,
    "分支机构": 5112,
    "恐怖主义": 5113,
    "反洗钱": 5114,
    "公平竞争": 5115,
    "公共利益": 5116,
    "当事人": 5117,
    "境外": 5118,
    "中华人民共和国": 5119,
    "党和国家": 5120,
    "违法犯罪": 5121,
    "秩序": 5122,
    "指令": 5123,
    "第一章": 5124,
    "境内": 5125,
    "收款人": 5126,
    "行政": 5127,
    "第二条": 5128,
    "货币资金": 5129,
    "付款人": 5130,
    "第三条": 5131,
    "股份": 5132,
    "必要措施": 5133,
    "路线方针": 5134,
    "跨境": 5135,
    "简称": 5136,
    "银行业": 5137,
    "非法": 5138,
    "法规": 5139,
    "第五条": 5140,
    "集资": 5141,
    "另有": 5142,
    "职责": 5143,
    "中国人民银行": 5144,
    "便民": 5145,
    "第一条": 5146,
    "有限责任": 5147,
    "开展业务": 5148,
    "宗旨": 5149,
    "赌博": 5150,
    "依照": 5151,
    "遵循": 5152,
    "处置": 5153,
    "终止": 5154,
    "单位名称": 5155,
    "第六条": 5156,
    "变相": 5157,
    "字样": 5158,
    "经营范围": 5159,
    "机构名称": 5160,
    "标明": 5161,
    "财务状况": 5162,
    "受理": 5163,
    "第十条": 5164,
    "地域": 5165,
    "拟任": 5166,
    "符合规定": 5167,
    "予以": 5168,
    "书面通知": 5169,
    "出资": 5170,
    "规章": 5171,
    "预案": 5172,
    "申请书": 5173,
    "具备": 5174,
    "实缴": 5175,
    "股权结构": 5176,
    "经营场所": 5177,
    "审慎": 5178,
    "第九条": 5179,
    "颁发": 5180,
    "债务": 5181,
    "载明": 5182,
    "第八条": 5183,
    "董事": 5184,
    "设施": 5185,
    "货币资本": 5186,
    "公司法": 5187,
    "熟悉": 5188,
    "最近": 5189,
    "管理人员": 5190,
    "申请人": 5191,
    "第七条": 5192,
    "履行职责": 5193,
    "权属": 5194,
    "股东": 5195,
    "前款": 5196,
    "监事": 5197,
    "管理制度": 5198,
    "保障机制": 5199,
    "注册资本": 5200,
    "第十一条": 5201,
    "以外": 5202,
    "保持一致": 5203,
    "自治区": 5204,
    "所在地": 5205,
    "特约": 5206,
    "登记手续": 5207,
    "住所": 5208,
    "登记": 5209,
    "直辖市": 5210,
    "第十二条": 5211,
    "正当理由": 5212,
    "第十四条": 5213,
    "方可": 5214,
    "分立": 5215,
    "下列": 5216,
    "解散": 5217,
    "第十三条": 5218,
    "吊销": 5219,
    "外汇": 5220,
    "第十九条": 5221,
    "强制性": 5222,
    "能否": 5223,
    "安全性": 5224,
    "第二十条": 5225,
    "及时性": 5226,
    "属于": 5227,
    "国家标准": 5228,
    "备份": 5229,
    "第十七条": 5230,
    "需经": 5231,
    "涂改": 5232,
    "第十八条": 5233,
    "准确性": 5234,
    "储值": 5235,
    "及其": 5236,
    "建立健全": 5237,
    "第十六条": 5238,
    "出租": 5239,
    "行政许可": 5240,
    "第十五条": 5241,
    "业务管理": 5242,
    "预付卡": 5243,
    "出借": 5244,
    "连续性": 5245,
    "突发事件": 5246,
    "应急": 5247,
    "倒卖": 5248,
    "业务流程": 5249,
    "电文": 5250,
    "采取相应": 5251,
    "第二十二条": 5252,
    "减轻": 5253,
    "监测": 5254,
    "非法经营": 5255,
    "公示": 5256,
    "权利义务": 5257,
    "第一款": 5258,
    "拟定": 5259,
    "书面形式": 5260,
    "违约责任": 5261,
    "开立": 5262,
    "应用程序": 5263,
    "足以": 5264,
    "风险管理": 5265,
    "第二十三条": 5266,
    "征求": 5267,
    "本条": 5268,
    "达成": 5269,
    "尽职": 5270,
    "加重": 5271,
    "排除": 5272,
    "用户意见": 5273,
    "第二十一条": 5274,
    "等值": 5275,
    "意愿": 5276,
    "完整性": 5277,
    "传递": 5278,
    "商业银行": 5279,
    "第二十七条": 5280,
    "与其": 5281,
    "第二十六条": 5282,
    "买卖": 5283,
    "备付": 5284,
    "伪造": 5285,
    "划转": 5286,
    "簿记": 5287,
    "一致性": 5288,
    "利息": 5289,
    "扣划": 5290,
    "第二十四条": 5291,
    "第二十五条": 5292,
    "反映": 5293,
    "假名": 5294,
    "违反规定": 5295,
    "采取有效": 5296,
    "转换": 5297,
    "持有": 5298,
    "提取": 5299,
    "变造": 5300,
    "净资产": 5301,
    "将备": 5302,
    "明示": 5303,
    "信息处理": 5304,
    "第二十八条": 5305,
    "第二十九条": 5306,
    "机关": 5307,
    "目的": 5308,
    "第三十一条": 5309,
    "报送": 5310,
    "预收": 5311,
    "借用": 5312,
    "确定": 5313,
    "付金为": 5314,
    "日均": 5315,
    "第三十二条": 5316,
    "与备": 5317,
    "妥善": 5318,
    "付金": 5319,
    "强制执行": 5320,
    "挪用": 5321,
    "第三十条": 5322,
    "称备": 5323,
    "占用": 5324,
    "资料": 5325,
    "待付": 5326,
    "保护措施": 5327,
    "国家有关": 5328,
    "信息系统": 5329,
    "确需": 5330,
    "第三十三条": 5331,
    "网络设施": 5332,
    "必需": 5333,
    "妥善处理": 5334,
    "出境": 5335,
    "节点": 5336,
    "选择权": 5337,
    "未予": 5338,
    "知情权": 5339,
    "争议": 5340,
    "调解": 5341,
    "仲裁": 5342,
    "第三十五条": 5343,
    "第三十四条": 5344,
    "间接": 5345,
    "第四章": 5346,
    "评级": 5347,
    "股权": 5348,
    "不利": 5349,
    "持股": 5350,
    "规避": 5351,
    "第三十八条": 5352,
    "控股": 5353,
    "财务会计": 5354,
    "表决权": 5355,
    "统计数据": 5356,
    "第三十七条": 5357,
    "重要性": 5358,
    "第三十六条": 5359,
    "数据报表": 5360,
    "谈话": 5361,
    "稳定性": 5362,
    "总数": 5363,
    "第四十条": 5364,
    "场所": 5365,
    "第四十一条": 5366,
    "派出机构": 5367,
    "文书": 5368,
    "查阅": 5369,
    "第三十九条": 5370,
    "执法": 5371,
    "隐瞒": 5372,
    "调查取证": 5373,
    "检查和": 5374,
    "其省": 5375,
    "改正": 5376,
    "事件": 5377,
    "扣押": 5378,
    "阻挠": 5379,
    "出示": 5380,
    "责令": 5381,
    "质押": 5382,
    "现场": 5383,
    "证件": 5384,
    "涉嫌": 5385,
    "封存": 5386,
    "出具": 5387,
    "违规行为": 5388,
    "隐匿": 5389,
    "市场秩序": 5390,
    "毁损": 5391,
    "情况通报": 5392,
    "第四十六": 5393,
    "知悉": 5394,
    "第四十二条": 5395,
    "区分": 5396,
    "第四十四条": 5397,
    "第四十五": 5398,
    "移送": 5399,
    "地方": 5400,
    "资本": 5401,
    "线索": 5402,
    "垄断": 5403,
    "正当竞争": 5404,
    "工作人员": 5405,
    "查处": 5406,
    "人民政府": 5407,
    "第四十三条": 5408,
    "妨害": 5409,
    "做好": 5410,
    "商业秘密": 5411,
    "注资": 5412,
    "四十八条": 5413,
    "责任人员": 5414,
    "逾期": 5415,
    "并处": 5416,
    "年内": 5417,
    "法定代表": 5418,
    "擅自": 5419,
    "欺骗": 5420,
    "已获": 5421,
    "取缔": 5422,
    "单处": 5423,
    "第四十九条": 5424,
    "情节严重": 5425,
    "停业整顿": 5426,
    "未获": 5427,
    "第五章": 5428,
    "没收": 5429,
    "所得": 5430,
    "之一": 5431,
    "第四十七条": 5432,
    "主管人员": 5433,
    "通报批评": 5434,
    "第二项": 5435,
    "第五十": 5436,
    "第一项": 5437,
    "吊销其": 5438,
    "直至": 5439,
    "第四项": 5440,
    "PHON": 5441,
    "BEAUT": 5442,
    "发送到": 5443,
    "按原": 5444,
    "完好无损": 5445,
    "单上": 5446,
    "疑虑": 5447,
    "如丰巢": 5448,
    "派件员": 5449,
    "菜鸟": 5450,
    "E111": 5451,
    "E112": 5452,
    "E113": 5453,
    "E114": 5454,
    "需本": 5455,
    "丝鞋": 5456,
    "TY": 5457,
    "BEAU": 5458,
    "账号密码": 5459,
    "面容": 5460,
    "解锁": 5461,
    "指纹": 5462,
    "消失": 5463,
    "推送": 5464,
    "较晚": 5465,
    "纪念": 5466,
    "囤货": 5467,
    "意义": 5468,
    "售完": 5469,
    "即止": 5470,
    "LOGO": 5471,
    "印刷": 5472,
    "错别字": 5473,
    "细节": 5474,
    "舒适度": 5475,
    "客观": 5476,
    "物有所值": 5477,
    "优缺点": 5478,
    "感受": 5479,
    "优点": 5480,
    "就近": 5481,
    "自营": 5482,
    "时间段": 5483,
    "第十六章": 5484,
    "沉浸": 5485,
    "集成显卡": 5486,
    "视频剪辑": 5487,
    "足够": 5488,
    "NVIDIA": 5489,
    "影音": 5490,
    "RX": 5491,
    "标准接口": 5492,
    "接设备": 5493,
    "Thunderbolt": 5494,
    "SD": 5495,
    "数据传输": 5496,
    "耳机": 5497,
    "接显示器": 5498,
    "ROG": 5499,
    "Spectre": 5500,
    "Envy": 5501,
    "Alienware": 5502,
    "Vivobook": 5503,
    "Inspiron": 5504,
    "惠普": 5505,
    "ZenBook": 5506,
    "Pavilion": 5507,
    "魔霸": 5508,
    "G16": 5509,
    "无畏": 5510,
    "新锐": 5511,
    "BE": 5512,
    "AUTY": 5513,
    "语义": 5514,
    "键值": 5515,
    "本块": 5516,
    "章节": 5517,
    "假日": 5518,
    "BEA": 5519,
    "UTY": 5520,
    "结构化": 5521,
    "天内": 5522,
    "第九章": 5523,
    "本章": 5524,
    "第六章": 5525,
    "第八章": 5526,
    "个子": 5527,
    "后台": 5528,
    "视觉效果": 5529,
    "倾听": 5530,
    "爆仓": 5531,
    "人手不足": 5532,
    "电子礼品": 5533,
    "同步": 5534,
    "变动": 5535,
    "abcd": 5536,
    "aaaa": 5537,
    "不规则": 5538,
    "字符": 5539,
    "大写字母": 5540,
    "新密码": 5541,
    "强度": 5542,
    "双重": 5543,
    "怀疑": 5544,
    "历史记录": 5545,
    "浏览器": 5546,
    "尽量避免": 5547,
    "WIFI": 5548,
    "加密": 5549,
    "最小化": 5550,
    "访问控制": 5551,
    "底部": 5552,
    "许多": 5553,
    "简要": 5554,
    "答案": 5555,
    "避开": 5556,
    "晚上": 5557,
    "转交": 5558,
    "资深": 5559,
    "用词": 5560,
    "表达清晰": 5561,
    "专业知识": 5562,
    "恰当": 5563,
    "细致": 5564,
    "跟进": 5565,
    "情绪": 5566,
    "行业动态": 5567,
    "新技能": 5568,
    "乐观": 5569,
    "换位": 5570,
    "暗示": 5571,
    "首页": 5572,
    "类别": 5573,
    "应付": 5574,
    "知道": 5575,
    "维权": 5576,
    "概述": 5577,
    "第十章": 5578,
    "文档": 5579,
    "B4": 5580,
    "B5": 5581,
    "Appl": 5582,
    "联络": 5583,
    "12MP": 5584,
    "15W": 5585,
    "3nm": 5586,
    "SOS": 5587,
    "48MP": 5588,
    "最高": 5589,
    "10Gbps": 5590,
    "车祸": 5591,
    "Super": 5592,
    "3D": 5593,
    "操控": 5594,
    "Gen": 5595,
    "天通": 5596,
    "50MP": 5597,
    "深感": 5598,
    "Maleoon": 5599,
    "隔空": 5600,
    "临境": 5601,
    "智感": 5602,
    "13MP": 5603,
    "抗水": 5604,
    "10MP": 5605,
    "笔记": 5606,
    "大猩猩": 5607,
    "康宁": 5608,
    "200MP": 5609,
    "Adreno": 5610,
    "Armor": 5611,
    "第七章": 5612,
    "结束语": 5613,
    "B3": 5614,
    "B1": 5615,
    "Asics": 5616,
    "TPE": 5617,
    "鞋子": 5618,
    "矫正": 5619,
    "外旋": 5620,
    "Brooks": 5621,
    "Saucony": 5622,
    "内旋": 5623,
    "必选": 5624,
    "速干": 5625,
    "包胶防": 5626,
    "从轻": 5627,
    "全身": 5628,
    "阻力": 5629,
    "功能性": 5630,
    "运动服装": 5631,
    "C6": 5632,
    "D1": 5633,
    "原意": 5634,
    "原文": 5635,
    "此处": 5636,
    "F3": 5637,
    "缓慢": 5638,
    "方方面面": 5639,
    "这本": 5640,
    "超微距": 5641,
    "速率": 5642,
    "Intel": 5643,
    "Iris": 5644,
    "F1.4": 5645,
    "F4.0": 5646,
    "Xe": 5647,
    "光变": 5648,
    "面板": 5649,
    "超瓷晶": 5650,
    "20W": 5651,
    "反向": 5652,
    "玄武": 5653,
    "SAMSUNG": 5654,
    "DeX": 5655,
    "商品目录": 5656,
    "G3": 5657,
    "空白": 5658,
    "C1": 5659,
    "保质": 5660,
    "母婴": 5661,
    "美妆个": 5662,
    "护类": 5663,
    "食品饮料": 5664,
    "大米": 5665,
    "精华液": 5666,
    "奶粉": 5667,
    "婴儿": 5668,
    "C5": 5669,
    "C4": 5670,
    "F4": 5671,
    "行为规范": 5672,
    "F6": 5673,
    "G1": 5674,
    "恢复原": 5675,
    "不紧": 5676,
    "免磨脚": 5677,
    "用油": 5678,
    "不影": 5679,
    "瓶后": 5680,
    "日立": 5681,
    "E141": 5682,
    "E142": 5683,
    "E143": 5684,
    "F2": 5685,
    "F5": 5686,
    "G4": 5687,
    "全文完": 5688,
    "ness": 5689,
    "品行": 5690,
    "六个": 5691,
    "AT": 5692,
    "Co": 5693,
    "nverse": 5694,
    "识库": 5695,
    "本知": 5696,
    "差异": 5697,
    "控键": 5698,
    "质期": 5699,
    "汇总": 5700,
    "第十": 5701,
    "共收录": 5702,
    "调至": 5703,
    "内回": 5704,
    "fTaoB": 5705,
    "引擎": 5706,
    "神经网络": 5707,
    "Qi2": 5708,
    "25W": 5709,
    "UI": 5710,
    "即圈": 5711,
    "One": 5712,
    "GP": 5713,
    "箱装": 5714,
    "Be": 5715,
    "无违": 5716,
    "时需": 5717,
    "轻到": 5718,
    "作日": 5719,
    "于面": 5720,
    "递单": 5721,
    "未发": 5722,
    "促期": 5723,
    "已关": 5724,
    "00W": 5725,
    "骤一": 5726,
    "身已": 5727,
    "惠券": 5728,
    "收时": 5729,
    "时内": 5730,
    "hilips": 5731,
    "眼周": 5732,
    "无门": 5733,
    "fta": 5734,
    "ao": 5735,
    "值税": 5736,
    "方微信": 5737,
    "需收": 5738,
    "密码找回": 5739,
    "oabao": 5740
  },
  "df": {
    "0": 8,
    "1": 26,
    "2": 272,
    "3": 38,
    "4": 16,
    "5": 84,
    "6": 16,
    "7": 296,
    "8": 470,
    "9": 54,
    "10": 288,
    "11": 2474,
    "12": 8,
    "13": 127,
    "14": 8,
    "15": 38,
    "16": 16,
    "17": 16,
    "18": 385,
    "19": 8,
    "20": 1435,
    "21": 9,
    "22": 56,
    "23": 968,
    "24": 8,
    "25": 402,
    "26": 11,
    "27": 8,
    "28": 8,
    "29": 15,
    "30": 8,
    "31": 2464,
    "32": 6382,
    "33": 8,
    "34": 15,
    "35": 8,
    "36": 2216,
    "37": 755,
    "38": 3042,
    "39": 1066,
    "40": 86,
    "41": 143,
    "42": 8,
    "43": 24,
    "44": 104,
    "45": 230,
    "46": 121,
    "47": 72,
    "48": 120,
    "49": 72,
    "50": 6,
    "51": 121,
    "52": 165,
    "53": 40,
    "54": 9,
    "55": 295,
    "56": 8,
    "57": 1148,
    "58": 24,
    "59": 8,
    "60": 2817,
    "61": 104,
    "62": 20,
    "63": 298,
    "64": 2022,
    "65": 24,
    "66": 72,
    "67": 72,
    "68": 38,
    "69": 72,
    "70": 56,
    "71": 24,
    "72": 267,
    "73": 24,
    "74": 88,
    "75": 194,
    "76": 236,
    "77": 111,
    "78": 14,
    "79": 46,
    "80": 64,
    "81": 46,
    "82": 94,
    "83": 117,
    "84": 1061,
    "85": 21,
    "86": 1152,
    "87": 14,
    "88": 46,
    "89": 62,
    "90": 110,
    "91": 226,
    "92": 670,
    "93": 488,
    "94": 3300,
    "95": 257,
    "96": 5681,
    "97": 89,
    "98": 56,
    "99": 14,
    "100": 40,
    "101": 8263,
    "102": 86,
    "103": 166,
    "104": 116,
    "105": 14,
    "106": 120,
    "107": 160,
    "108": 14,
    "109": 190,
    "110": 14,
    "111": 246,
    "112": 151,
    "113": 167,
    "114": 21,
    "115": 60,
    "116": 76,
    "117": 142,
    "118": 166,
    "119": 174,
    "120": 3311,
    "121": 873,
    "122": 286,
    "123": 14,
    "124": 14,
    "125": 46,
    "126": 30,
    "127": 1175,
    "128": 6117,
    "129": 679,
    "130": 16,
    "131": 16,
    "132": 9983,
    "133": 325,
    "134": 102,
    "135": 167,
    "136": 582,
    "137": 332,
    "138": 74,
    "139": 16,
    "140": 64,
    "141": 282,
    "142": 7397,
    "143": 203,
    "144": 47,
    "145": 78,
    "146": 64,
    "147": 48,
    "148": 143,
    "149": 78,
    "150": 48,
    "151": 16,
    "152": 123,
    "153": 32,
    "154": 1144,
    "155": 317,
    "156": 137,
    "157": 16,
    "158": 287,
    "159": 88,
    "160": 32,
    "161": 16,
    "162": 145,
    "163": 16,
    "164": 1199,
    "165": 64,
    "166": 64,
    "167": 288,
    "168": 7,
    "169": 3908,
    "170": 32,
    "171": 342,
    "172": 2771,
    "173": 48,
    "174": 1100,
    "175": 688,
    "176": 32,
    "177": 32,
    "178": 176,
    "179": 1775,
    "180": 207,
    "181": 16,
    "182": 80,
    "183": 16,
    "184": 34,
    "185": 504,
    "186": 166,
    "187": 817,
    "188": 214,
    "189": 2612,
    "190": 170,
    "191": 16,
    "192": 16,
    "193": 78,
    "194": 491,
    "195": 30,
    "196": 17,
    "197": 132,
    "198": 33,
    "199": 178,
    "200": 48,
    "201": 256,
    "202": 112,
    "203": 30,
    "204": 48,
    "205": 32,
    "206": 89,
    "207": 48,
    "208": 135,
    "209": 32,
    "210": 180,
    "211": 14315,
    "212": 16,
    "213": 16,
    "214": 393,
    "215": 715,
    "216": 147,
    "217": 52,
    "218": 62,
    "219": 316,
    "220": 78,
    "221": 32,
    "222": 16,
    "223": 154,
    "224": 32,
    "225": 96,
    "226": 16,
    "227": 16,
    "228": 606,
    "229": 1261,
    "230": 16,
    "231": 280,
    "232": 32,
    "233": 32,
    "234": 152,
    "235": 262,
    "236": 16,
    "237": 16,
    "238": 93,
    "239": 291,
    "240": 186,
    "241": 16,
    "242": 895,
    "243": 32,
    "244": 32,
    "245": 64,
    "246": 16,
    "247": 314,
    "248": 2825,
    "249": 48,
    "250": 16,
    "251": 16,
    "252": 199,
    "253": 16,
    "254": 272,
    "255": 16,
    "256": 122,
    "257": 595,
    "258": 33,
    "259": 365,
    "260": 276,
    "261": 64,
    "262": 40,
    "263": 120,
    "264": 97,
    "265": 16,
    "266": 160,
    "267": 96,
    "268": 32,
    "269": 16,
    "270": 32,
    "271": 32,
    "272": 1802,
    "273": 1128,
    "274": 48,
    "275": 32,
    "276": 612,
    "277": 247,
    "278": 172,
    "279": 2895,
    "280": 16,
    "281": 48,
    "282": 51,
    "283": 32,
    "284": 48,
    "285": 32,
    "286": 16,
    "287": 16,
    "288": 48,
    "289": 26,
    "290": 785,
    "291": 753,
    "292": 172,
    "293": 16,
    "294": 16,
    "295": 80,
    "296": 317,
    "297": 16,
    "298": 16,
    "299": 16,
    "300": 64,
    "301": 96,
    "302": 16,
    "303": 94,
    "304": 1494,
    "305": 32,
    "306": 54,
    "307": 323,
    "308": 16,
    "309": 16,
    "310": 16,
    "311": 64,
    "312": 408,
    "313": 16,
    "314": 16,
    "315": 16,
    "316": 16,
    "317": 2391,
    "318": 16,
    "319": 16,
    "320": 32,
    "321": 16,
    "322": 203,
    "323": 399,
    "324": 198,
    "325": 32,
    "326": 105,
    "327": 195,
    "328": 10676,
    "329": 16,
    "330": 16,
    "331": 298,
    "332": 32,
    "333": 66,
    "334": 210,
    "335": 80,
    "336": 1246,
    "337": 305,
    "338": 16,
    "339": 16,
    "340": 64,
    "341": 2093,
    "342": 653,
    "343": 742,
    "344": 64,
    "345": 4437,
    "346": 4099,
    "347": 360,
    "348": 16,
    "349": 64,
    "350": 169,
    "351": 201,
    "352": 68,
    "353": 32,
    "354": 16,
    "355": 16,
    "356": 589,
    "357": 260,
    "358": 415,
    "359": 8829,
    "360": 64,
    "361": 5038,
    "362": 285,
    "363": 16,
    "364": 659,
    "365": 752,
    "366": 16,
    "367": 203,
    "368": 160,
    "369": 16,
    "370": 461,
    "371": 2692,
    "372": 32,
    "373": 16,
    "374": 975,
    "375": 32,
    "376": 16,
    "377": 16,
    "378": 32,
    "379": 119,
    "380": 32,
    "381": 286,
    "382": 418,
    "383": 511,
    "384": 16,
    "385": 32,
    "386": 32,
    "387": 32,
    "388": 16,
    "389": 265,
    "390": 787,
    "391": 812,
    "392": 176,
    "393": 64,
    "394": 32,
    "395": 16,
    "396": 547,
    "397": 144,
    "398": 159,
    "399": 16,
    "400": 16,
    "401": 16,
    "402": 16,
    "403": 32,
    "404": 96,
    "405": 32,
    "406": 48,
    "407": 48,
    "408": 17,
    "409": 19,
    "410": 725,
    "411": 90,
    "412": 48,
    "413": 16,
    "414": 32,
    "415": 208,
    "416": 64,
    "417": 80,
    "418": 32,
    "419": 196,
    "420": 89,
    "421": 80,
    "422": 194,
    "423": 32,
    "424": 80,
    "425": 16,
    "426": 16,
    "427": 32,
    "428": 34,
    "429": 48,
    "430": 51,
    "431": 259,
    "432": 265,
    "433": 64,
    "434": 32,
    "435": 361,
    "436": 16,
    "437": 16,
    "438": 645,
    "439": 865,
    "440": 48,
    "441": 33,
    "442": 48,
    "443": 16,
    "444": 64,
    "445": 17,
    "446": 1095,
    "447": 32,
    "448": 32,
    "449": 114,
    "450": 16,
    "451": 96,
    "452": 16,
    "453": 49,
    "454": 16,
    "455": 25815,
    "456": 32,
    "457": 88,
    "458": 32,
    "459": 168,
    "460": 41,
    "461": 151,
    "462": 16,
    "463": 67,
    "464": 16,
    "465": 120,
    "466": 52,
    "467": 16,
    "468": 5116,
    "469": 32,
    "470": 16,
    "471": 16,
    "472": 2452,
    "473": 16,
    "474": 16,
    "475": 16,
    "476": 128,
    "477": 16,
    "478": 104,
    "479": 16,
    "480": 16,
    "481": 401,
    "482": 16,
    "483": 80,
    "484": 358,
    "485": 16,
    "486": 1919,
    "487": 16,
    "488": 16,
    "489": 32,
    "490": 112,
    "491": 32,
    "492": 35,
    "493": 32,
    "494": 16,
    "495": 435,
    "496": 32,
    "497": 16,
    "498": 16,
    "499": 25,
    "500": 112,
    "501": 16,
    "502": 64,
    "503": 64,
    "504": 16,
    "505": 32,
    "506": 92,
    "507": 48,
    "508": 228,
    "509": 32,
    "510": 32,
    "511": 864,
    "512": 80,
    "513": 16,
    "514": 64,
    "515": 16,
    "516": 110,
    "517": 16,
    "518": 32,
    "519": 16,
    "520": 118,
    "521": 16,
    "522": 20,
    "523": 64,
    "524": 16,
    "525": 16,
    "526": 16,
    "527": 25,
    "528": 16,
    "529": 48,
    "530": 66,
    "531": 16,
    "532": 94,
    "533": 16,
    "534": 16,
    "535": 16,
    "536": 16,
    "537": 1418,
    "538": 48,
    "539": 32,
    "540": 721,
    "541": 16,
    "542": 32,
    "543": 16,
    "544": 328,
    "545": 16,
    "546": 16,
    "547": 16,
    "548": 16,
    "549": 30,
    "550": 88,
    "551": 16,
    "552": 22,
    "553": 16,
    "554": 16,
    "555": 16,
    "556": 16,
    "557": 48,
    "558": 16,
    "559": 16,
    "560": 16,
    "561": 16,
    "562": 16,
    "563": 32,
    "564": 16,
    "565": 16,
    "566": 48,
    "567": 16,
    "568": 16,
    "569": 64,
    "570": 16,
    "571": 104,
    "572": 48,
    "573": 32,
    "574": 32,
    "575": 251,
    "576": 446,
    "577": 16,
    "578": 356,
    "579": 16,
    "580": 2153,
    "581": 32,
    "582": 367,
    "583": 16,
    "584": 279,
    "585": 16,
    "586": 153,
    "587": 16,
    "588": 16,
    "589": 64,
    "590": 88,
    "591": 16,
    "592": 32,
    "593": 1343,
    "594": 1567,
    "595": 16,
    "596": 306,
    "597": 48,
    "598": 16,
    "599": 32,
    "600": 413,
    "601": 914,
    "602": 64,
    "603": 64,
    "604": 321,
    "605": 17,
    "606": 16,
    "607": 16,
    "608": 32,
    "609": 16,
    "610": 32,
    "611": 16,
    "612": 3415,
    "613": 32,
    "614": 64,
    "615": 324,
    "616": 160,
    "617": 80,
    "618": 16,
    "619": 16,
    "620": 1470,
    "621": 16,
    "622": 70,
    "623": 154,
    "624": 32,
    "625": 222,
    "626": 16,
    "627": 119,
    "628": 16,
    "629": 16,
    "630": 2590,
    "631": 16,
    "632": 187,
    "633": 16,
    "634": 32,
    "635": 16,
    "636": 16,
    "637": 2067,
    "638": 16,
    "639": 338,
    "640": 484,
    "641": 16,
    "642": 16,
    "643": 222,
    "644": 32,
    "645": 48,
    "646": 48,
    "647": 1600,
    "648": 16,
    "649": 16,
    "650": 64,
    "651": 32,
    "652": 16,
    "653": 4244,
    "654": 16,
    "655": 92,
    "656": 16,
    "657": 64,
    "658": 16,
    "659": 16,
    "660": 156,
    "661": 1227,
    "662": 16,
    "663": 16,
    "664": 16,
    "665": 46,
    "666": 133,
    "667": 160,
    "668": 16,
    "669": 46,
    "670": 16,
    "671": 64,
    "672": 32,
    "673": 163,
    "674": 16,
    "675": 447,
    "676": 64,
    "677": 32,
    "678": 64,
    "679": 32,
    "680": 16,
    "681": 16,
    "682": 16,
    "683": 16,
    "684": 16,
    "685": 33,
    "686": 32,
    "687": 32,
    "688": 32,
    "689": 326,
    "690": 18,
    "691": 48,
    "692": 16,
    "693": 16,
    "694": 32,
    "695": 16,
    "696": 16,
    "697": 16,
    "698": 32,
    "699": 554,
    "700": 16,
    "701": 16,
    "702": 64,
    "703": 32,
    "704": 16,
    "705": 16,
    "706": 16,
    "707": 118,
    "708": 155,
    "709": 16,
    "710": 16,
    "711": 16,
    "712": 16,
    "713": 16,
    "714": 32,
    "715": 16,
    "716": 330,
    "717": 16,
    "718": 16,
    "719": 16,
    "720": 16,
    "721": 32,
    "722": 16,
    "723": 48,
    "724": 32,
    "725": 16,
    "726": 16,
    "727": 16,
    "728": 485,
    "729": 32,
    "730": 375,
    "731": 54,
    "732": 32,
    "733": 16,
    "734": 32,
    "735": 16,
    "736": 16,
    "737": 107,
    "738": 1129,
    "739": 16,
    "740": 64,
    "741": 89,
    "742": 16,
    "743": 16,
    "744": 16,
    "745": 56,
    "746": 33,
    "747": 56,
    "748": 64,
    "749": 73,
    "750": 32,
    "751": 48,
    "752": 16,
    "753": 16,
    "754": 478,
    "755": 249,
    "756": 612,
    "757": 72,
    "758": 852,
    "759": 64,
    "760": 32,
    "761": 467,
    "762": 16,
    "763": 96,
    "764": 16,
    "765": 16,
    "766": 16,
    "767": 32,
    "768": 16,
    "769": 48,
    "770": 32,
    "771": 407,
    "772": 152,
    "773": 16,
    "774": 16,
    "775": 101,
    "776": 64,
    "777": 16,
    "778": 16,
    "779": 16,
    "780": 32,
    "781": 16,
    "782": 16,
    "783": 40,
    "784": 32,
    "785": 16,
    "786": 1185,
    "787": 20511,
    "788": 16,
    "789": 49,
    "790": 16,
    "791": 436,
    "792": 16,
    "793": 16,
    "794": 16,
    "795": 16,
    "796": 711,
    "797": 16,
    "798": 32,
    "799": 16,
    "800": 16,
    "801": 32,
    "802": 308,
    "803": 32,
    "804": 197,
    "805": 17,
    "806": 16,
    "807": 357,
    "808": 16,
    "809": 32,
    "810": 32,
    "811": 1142,
    "812": 104,
    "813": 32,
    "814": 16,
    "815": 160,
    "816": 16,
    "817": 88,
    "818": 32,
    "819": 16,
    "820": 16,
    "821": 272,
    "822": 556,
    "823": 16,
    "824": 68,
    "825": 16,
    "826": 16,
    "827": 125,
    "828": 16,
    "829": 32,
    "830": 96,
    "831": 80,
    "832": 80,
    "833": 80,
    "834": 517,
    "835": 80,
    "836": 16,
    "837": 80,
    "838": 16,
    "839": 80,
    "840": 80,
    "841": 48,
    "842": 16,
    "843": 80,
    "844": 96,
    "845": 16,
    "846": 32,
    "847": 152,
    "848": 16,
    "849": 16,
    "850": 580,
    "851": 275,
    "852": 16,
    "853": 48,
    "854": 16,
    "855": 115,
    "856": 680,
    "857": 80,
    "858": 16,
    "859": 16,
    "860": 16,
    "861": 32,
    "862": 64,
    "863": 32,
    "864": 32,
    "865": 72,
    "866": 48,
    "867": 48,
    "868": 64,
    "869": 32,
    "870": 32,
    "871": 32,
    "872": 33,
    "873": 16,
    "874": 32,
    "875": 105,
    "876": 16,
    "877": 16,
    "878": 253,
    "879": 16,
    "880": 16,
    "881": 32,
    "882": 16,
    "883": 32,
    "884": 32,
    "885": 48,
    "886": 115,
    "887": 16,
    "888": 120,
    "889": 16,
    "890": 16,
    "891": 107,
    "892": 48,
    "893": 16,
    "894": 16,
    "895": 89,
    "896": 230,
    "897": 16,
    "898": 16,
    "899": 64,
    "900": 7942,
    "901": 64,
    "902": 5950,
    "903": 20,
    "904": 16,
    "905": 110,
    "906": 16,
    "907": 212,
    "908": 16,
    "909": 16,
    "910": 16,
    "911": 16,
    "912": 32,
    "913": 16,
    "914": 88,
    "915": 88,
    "916": 16,
    "917": 16,
    "918": 779,
    "919": 306,
    "920": 32,
    "921": 64,
    "922": 87,
    "923": 32,
    "924": 16,
    "925": 10267,
    "926": 72,
    "927": 16,
    "928": 16,
    "929": 235,
    "930": 16,
    "931": 48,
    "932": 72,
    "933": 16,
    "934": 72,
    "935": 16,
    "936": 72,
    "937": 16,
    "938": 506,
    "939": 16,
    "940": 89,
    "941": 16,
    "942": 131,
    "943": 16,
    "944": 32,
    "945": 32,
    "946": 16,
    "947": 16,
    "948": 16,
    "949": 80,
    "950": 92,
    "951": 16,
    "952": 16,
    "953": 16,
    "954": 64,
    "955": 16,
    "956": 3222,
    "957": 306,
    "958": 48,
    "959": 3931,
    "960": 16,
    "961": 16,
    "962": 24,
    "963": 118,
    "964": 118,
    "965": 16,
    "966": 32,
    "967": 16,
    "968": 16,
    "969": 16,
    "970": 16,
    "971": 134,
    "972": 782,
    "973": 16,
    "974": 16,
    "975": 16,
    "976": 64,
    "977": 16,
    "978": 32,
    "979": 16,
    "980": 16,
    "981": 32,
    "982": 32,
    "983": 32,
    "984": 16,
    "985": 350,
    "986": 16,
    "987": 48,
    "988": 16,
    "989": 314,
    "990": 16,
    "991": 48,
    "992": 64,
    "993": 64,
    "994": 16,
    "995": 16,
    "996": 16,
    "997": 974,
    "998": 2065,
    "999": 48,
    "1000": 18,
    "1001": 64,
    "1002": 32,
    "1003": 583,
    "1004": 16,
    "1005": 16,
    "1006": 16,
    "1007": 147,
    "1008": 16,
    "1009": 32,
    "1010": 18,
    "1011": 16,
    "1012": 16,
    "1013": 32,
    "1014": 32,
    "1015": 16,
    "1016": 16,
    "1017": 32,
    "1018": 16,
    "1019": 16,
    "1020": 9904,
    "1021": 16,
    "1022": 16,
    "1023": 136,
    "1024": 102,
    "1025": 32,
    "1026": 130,
    "1027": 16,
    "1028": 16,
    "1029": 32,
    "1030": 16,
    "1031": 16,
    "1032": 90,
    "1033": 16,
    "1034": 16,
    "1035": 1672,
    "1036": 16,
    "1037": 48,
    "1038": 16,
    "1039": 16,
    "1040": 16,
    "1041": 16,
    "1042": 16,
    "1043": 961,
    "1044": 32,
    "1045": 16,
    "1046": 16,
    "1047": 16,
    "1048": 16,
    "1049": 18,
    "1050": 16,
    "1051": 16,
    "1052": 66,
    "1053": 16,
    "1054": 16,
    "1055": 142,
    "1056": 1172,
    "1057": 16,
    "1058": 104,
    "1059": 16,
    "1060": 653,
    "1061": 2906,
    "1062": 72,
    "1063": 4299,
    "1064": 48,
    "1065": 16,
    "1066": 16,
    "1067": 16,
    "1068": 16,
    "1069": 4465,
    "1070": 16,
    "1071": 820,
    "1072": 16,
    "1073": 32,
    "1074": 32,
    "1075": 2530,
    "1076": 16,
    "1077": 16,
    "1078": 1903,
    "1079": 32,
    "1080": 32,
    "1081": 16,
    "1082": 16,
    "1083": 11251,
    "1084": 16,
    "1085": 16,
    "1086": 16,
    "1087": 32,
    "1088": 32,
    "1089": 139,
    "1090": 16,
    "1091": 455,
    "1092": 32,
    "1093": 16,
    "1094": 16,
    "1095": 16,
    "1096": 49,
    "1097": 16,
    "1098": 622,
    "1099": 722,
    "1100": 16,
    "1101": 16,
    "1102": 16,
    "1103": 50,
    "1104": 3813,
    "1105": 16,
    "1106": 16,
    "1107": 32,
    "1108": 90,
    "1109": 16,
    "1110": 90,
    "1111": 16,
    "1112": 16,
    "1113": 198,
    "1114": 16,
    "1115": 32,
    "1116": 32,
    "1117": 16,
    "1118": 16,
    "1119": 571,
    "1120": 2109,
    "1121": 16,
    "1122": 337,
    "1123": 16,
    "1124": 64,
    "1125": 16,
    "1126": 16,
    "1127": 16,
    "1128": 16,
    "1129": 16,
    "1130": 16,
    "1131": 16,
    "1132": 16,
    "1133": 16,
    "1134": 32,
    "1135": 16,
    "1136": 16,
    "1137": 16,
    "1138": 16,
    "1139": 16,
    "1140": 16,
    "1141": 16,
    "1142": 16,
    "1143": 16,
    "1144": 16,
    "1145": 16,
    "1146": 16,
    "1147": 106,
    "1148": 16,
    "1149": 16,
    "1150": 32,
    "1151": 16,
    "1152": 16,
    "1153": 32,
    "1154": 16,
    "1155": 32,
    "1156": 16,
    "1157": 16,
    "1158": 16,
    "1159": 16,
    "1160": 99,
    "1161": 16,
    "1162": 32,
    "1163": 16,
    "1164": 32,
    "1165": 16,
    "1166": 17,
    "1167": 154,
    "1168": 48,
    "1169": 16,
    "1170": 16,
    "1171": 16,
    "1172": 16,
    "1173": 32,
    "1174": 411,
    "1175": 16,
    "1176": 16,
    "1177": 16,
    "1178": 16,
    "1179": 16,
    "1180": 17,
    "1181": 19,
    "1182": 32,
    "1183": 3640,
    "1184": 48,
    "1185": 32732,
    "1186": 88,
    "1187": 16,
    "1188": 16,
    "1189": 509,
    "1190": 16,
    "1191": 16,
    "1192": 471,
    "1193": 16,
    "1194": 16,
    "1195": 32,
    "1196": 272,
    "1197": 978,
    "1198": 16,
    "1199": 235,
    "1200": 16,
    "1201": 16,
    "1202": 16,
    "1203": 255,
    "1204": 16,
    "1205": 16,
    "1206": 16,
    "1207": 16,
    "1208": 88,
    "1209": 16,
    "1210": 16,
    "1211": 16,
    "1212": 16,
    "1213": 16,
    "1214": 16,
    "1215": 253,
    "1216": 16,
    "1217": 16,
    "1218": 927,
    "1219": 16,
    "1220": 870,
    "1221": 419,
    "1222": 16,
    "1223": 16,
    "1224": 16,
    "1225": 32,
    "1226": 141,
    "1227": 16,
    "1228": 16,
    "1229": 16,
    "1230": 1215,
    "1231": 16,
    "1232": 397,
    "1233": 16,
    "1234": 89,
    "1235": 16,
    "1236": 16,
    "1237": 2333,
    "1238": 16,
    "1239": 16,
    "1240": 16,
    "1241": 16,
    "1242": 48,
    "1243": 32,
    "1244": 16,
    "1245": 16,
    "1246": 375,
    "1247": 16,
    "1248": 308,
    "1249": 16,
    "1250": 17,
    "1251": 107,
    "1252": 107,
    "1253": 2311,
    "1254": 565,
    "1255": 16,
    "1256": 323,
    "1257": 22,
    "1258": 16,
    "1259": 16,
    "1260": 16,
    "1261": 286,
    "1262": 214,
    "1263": 16,
    "1264": 16,
    "1265": 16,
    "1266": 16,
    "1267": 16,
    "1268": 118,
    "1269": 16,
    "1270": 32,
    "1271": 16,
    "1272": 16,
    "1273": 106,
    "1274": 16,
    "1275": 16,
    "1276": 16,
    "1277": 291,
    "1278": 16,
    "1279": 16,
    "1280": 466,
    "1281": 32,
    "1282": 16,
    "1283": 16,
    "1284": 16,
    "1285": 32,
    "1286": 32,
    "1287": 48,
    "1288": 16,
    "1289": 490,
    "1290": 877,
    "1291": 32,
    "1292": 16,
    "1293": 16,
    "1294": 16,
    "1295": 16,
    "1296": 16,
    "1297": 21,
    "1298": 32,
    "1299": 832,
    "1300": 540,
    "1301": 8664,
    "1302": 16,
    "1303": 32,
    "1304": 16,
    "1305": 237,
    "1306": 1008,
    "1307": 16,
    "1308": 16,
    "1309": 1035,
    "1310": 310,
    "1311": 178,
    "1312": 16,
    "1313": 16,
    "1314": 16,
    "1315": 16,
    "1316": 358,
    "1317": 16,
    "1318": 16,
    "1319": 16,
    "1320": 16,
    "1321": 16,
    "1322": 16,
    "1323": 16,
    "1324": 16,
    "1325": 16,
    "1326": 16,
    "1327": 16,
    "1328": 16,
    "1329": 16,
    "1330": 16,
    "1331": 16,
    "1332": 16,
    "1333": 16,
    "1334": 16,
    "1335": 32,
    "1336": 16,
    "1337": 16,
    "1338": 16,
    "1339": 16,
    "1340": 16,
    "1341": 1159,
    "1342": 16,
    "1343": 2190,
    "1344": 16,
    "1345": 16,
    "1346": 16,
    "1347": 16,
    "1348": 80,
    "1349": 97,
    "1350": 117,
    "1351": 16,
    "1352": 16,
    "1353": 73,
    "1354": 48,
    "1355": 102,
    "1356": 16,
    "1357": 161,
    "1358": 16,
    "1359": 16,
    "1360": 16,
    "1361": 55,
    "1362": 16,
    "1363": 135,
    "1364": 16,
    "1365": 16,
    "1366": 16,
    "1367": 16,
    "1368": 16,
    "1369": 16,
    "1370": 183,
    "1371": 31,
    "1372": 58,
    "1373": 16,
    "1374": 20,
    "1375": 16,
    "1376": 16,
    "1377": 16,
    "1378": 16,
    "1379": 203,
    "1380": 734,
    "1381": 134,
    "1382": 2773,
    "1383": 345,
    "1384": 310,
    "1385": 299,
    "1386": 16,
    "1387": 171,
    "1388": 16,
    "1389": 196,
    "1390": 849,
    "1391": 16,
    "1392": 16,
    "1393": 92,
    "1394": 19,
    "1395": 16,
    "1396": 16,
    "1397": 32,
    "1398": 32,
    "1399": 16,
    "1400": 43,
    "1401": 16,
    "1402": 16,
    "1403": 16,
    "1404": 32,
    "1405": 16,
    "1406": 16,
    "1407": 197,
    "1408": 32,
    "1409": 16,
    "1410": 16,
    "1411": 1709,
    "1412": 16,
    "1413": 16,
    "1414": 16,
    "1415": 16,
    "1416": 17,
    "1417": 16,
    "1418": 356,
    "1419": 16,
    "1420": 16,
    "1421": 16,
    "1422": 16,
    "1423": 16,
    "1424": 191,
    "1425": 16,
    "1426": 443,
    "1427": 16,
    "1428": 16,
    "1429": 16,
    "1430": 16,
    "1431": 16,
    "1432": 94,
    "1433": 16,
    "1434": 16,
    "1435": 16,
    "1436": 16,
    "1437": 16,
    "1438": 16,
    "1439": 16,
    "1440": 16,
    "1441": 198,
    "1442": 2587,
    "1443": 96,
    "1444": 284,
    "1445": 16,
    "1446": 20,
    "1447": 16,
    "1448": 449,
    "1449": 16,
    "1450": 16,
    "1451": 16,
    "1452": 1165,
    "1453": 80,
    "1454": 16,
    "1455": 16,
    "1456": 16,
    "1457": 16,
    "1458": 16,
    "1459": 16,
    "1460": 88,
    "1461": 16,
    "1462": 16,
    "1463": 16,
    "1464": 16,
    "1465": 92,
    "1466": 16,
    "1467": 90,
    "1468": 1548,
    "1469": 16,
    "1470": 16,
    "1471": 16,
    "1472": 16,
    "1473": 104,
    "1474": 16,
    "1475": 16,
    "1476": 16,
    "1477": 16,
    "1478": 16,
    "1479": 238,
    "1480": 989,
    "1481": 16,
    "1482": 32,
    "1483": 16,
    "1484": 16,
    "1485": 90,
    "1486": 16,
    "1487": 64,
    "1488": 1413,
    "1489": 16,
    "1490": 18,
    "1491": 16,
    "1492": 16,
    "1493": 32,
    "1494": 16,
    "1495": 68,
    "1496": 16,
    "1497": 32,
    "1498": 16,
    "1499": 16,
    "1500": 16,
    "1501": 16,
    "1502": 16,
    "1503": 16,
    "1504": 16,
    "1505": 32,
    "1506": 160,
    "1507": 16,
    "1508": 86,
    "1509": 32,
    "1510": 16,
    "1511": 265,
    "1512": 32,
    "1513": 16,
    "1514": 16,
    "1515": 64,
    "1516": 16,
    "1517": 16,
    "1518": 32,
    "1519": 16,
    "1520": 16,
    "1521": 16,
    "1522": 16,
    "1523": 16,
    "1524": 36,
    "1525": 16,
    "1526": 16,
    "1527": 16,
    "1528": 16,
    "1529": 16,
    "1530": 198,
    "1531": 16,
    "1532": 16,
    "1533": 16,
    "1534": 16,
    "1535": 518,
    "1536": 16,
    "1537": 16,
    "1538": 16,
    "1539": 16,
    "1540": 131,
    "1541": 16,
    "1542": 16,
    "1543": 16,
    "1544": 16,
    "1545": 16,
    "1546": 16,
    "1547": 16,
    "1548": 16,
    "1549": 16,
    "1550": 54,
    "1551": 16,
    "1552": 16,
    "1553": 16,
    "1554": 551,
    "1555": 16,
    "1556": 683,
    "1557": 16,
    "1558": 89,
    "1559": 16,
    "1560": 16,
    "1561": 16,
    "1562": 16,
    "1563": 16,
    "1564": 16,
    "1565": 16,
    "1566": 16,
    "1567": 16,
    "1568": 16,
    "1569": 16,
    "1570": 16,
    "1571": 16,
    "1572": 16,
    "1573": 88,
    "1574": 16,
    "1575": 16,
    "1576": 48,
    "1577": 16,
    "1578": 16,
    "1579": 16,
    "1580": 16,
    "1581": 636,
    "1582": 16,
    "1583": 16,
    "1584": 16,
    "1585": 16,
    "1586": 16,
    "1587": 16,
    "1588": 16,
    "1589": 16,
    "1590": 16,
    "1591": 16,
    "1592": 16,
    "1593": 16,
    "1594": 16,
    "1595": 16,
    "1596": 16,
    "1597": 16,
    "1598": 16,
    "1599": 322,
    "1600": 16,
    "1601": 16,
    "1602": 16,
    "1603": 16,
    "1604": 66,
    "1605": 16,
    "1606": 16,
    "1607": 16,
    "1608": 16,
    "1609": 16,
    "1610": 16,
    "1611": 16,
    "1612": 64,
    "1613": 16,
    "1614": 64,
    "1615": 16,
    "1616": 16,
    "1617": 64,
    "1618": 16,
    "1619": 16,
    "1620": 16,
    "1621": 16,
    "1622": 20,
    "1623": 16,
    "1624": 16,
    "1625": 16,
    "1626": 16,
    "1627": 16,
    "1628": 164,
    "1629": 16,
    "1630": 16,
    "1631": 16,
    "1632": 16,
    "1633": 16,
    "1634": 16,
    "1635": 16,
    "1636": 16,
    "1637": 16,
    "1638": 234,
    "1639": 16,
    "1640": 16,
    "1641": 16,
    "1642": 16,
    "1643": 16,
    "1644": 16,
    "1645": 16,
    "1646": 16,
    "1647": 104,
    "1648": 101,
    "1649": 16,
    "1650": 144,
    "1651": 16,
    "1652": 54,
    "1653": 16,
    "1654": 16,
    "1655": 16,
    "1656": 89,
    "1657": 16,
    "1658": 16,
    "1659": 16,
    "1660": 17,
    "1661": 16,
    "1662": 16,
    "1663": 16,
    "1664": 16,
    "1665": 16,
    "1666": 16,
    "1667": 16,
    "1668": 16,
    "1669": 16,
    "1670": 16,
    "1671": 16,
    "1672": 16,
    "1673": 16,
    "1674": 16,
    "1675": 16,
    "1676": 16,
    "1677": 16,
    "1678": 16,
    "1679": 16,
    "1680": 16,
    "1681": 16,
    "1682": 16,
    "1683": 16,
    "1684": 16,
    "1685": 16,
    "1686": 407,
    "1687": 2,
    "1688": 2,
    "1689": 12,
    "1690": 12,
    "1691": 1792,
    "1692": 50,
    "1693": 50,
    "1694": 1427,
    "1695": 50,
    "1696": 3074,
    "1697": 801,
    "1698": 2215,
    "1699": 2546,
    "1700": 1854,
    "1701": 927,
    "1702": 1423,
    "1703": 50,
    "1704": 50,
    "1705": 4527,
    "1706": 20974,
    "1707": 50,
    "1708": 50,
    "1709": 1486,
    "1710": 2535,
    "1711": 175,
    "1712": 676,
    "1713": 50,
    "1714": 1720,
    "1715": 50,
    "1716": 1713,
    "1717": 1131,
    "1718": 20318,
    "1719": 2487,
    "1720": 50,
    "1721": 6239,
    "1722": 1303,
    "1723": 517,
    "1724": 331,
    "1725": 50,
    "1726": 275,
    "1727": 5681,
    "1728": 5697,
    "1729": 3198,
    "1730": 9006,
    "1731": 7479,
    "1732": 8277,
    "1733": 531,
    "1734": 264,
    "1735": 280,
    "1736": 6684,
    "1737": 1649,
    "1738": 2306,
    "1739": 1279,
    "1740": 490,
    "1741": 497,
    "1742": 3970,
    "1743": 417,
    "1744": 1254,
    "1745": 615,
    "1746": 4557,
    "1747": 187,
    "1748": 1525,
    "1749": 854,
    "1750": 112,
    "1751": 1216,
    "1752": 1526,
    "1753": 949,
    "1754": 493,
    "1755": 563,
    "1756": 243,
    "1757": 368,
    "1758": 1751,
    "1759": 186,
    "1760": 372,
    "1761": 184,
    "1762": 2411,
    "1763": 323,
    "1764": 668,
    "1765": 5930,
    "1766": 1837,
    "1767": 216,
    "1768": 374,
    "1769": 2103,
    "1770": 1980,
    "1771": 1136,
    "1772": 599,
    "1773": 2407,
    "1774": 1115,
    "1775": 710,
    "1776": 114,
    "1777": 1911,
    "1778": 1313,
    "1779": 854,
    "1780": 205,
    "1781": 227,
    "1782": 215,
    "1783": 83,
    "1784": 90,
    "1785": 285,
    "1786": 227,
    "1787": 209,
    "1788": 357,
    "1789": 227,
    "1790": 112,
    "1791": 227,
    "1792": 357,
    "1793": 80,
    "1794": 78,
    "1795": 78,
    "1796": 80,
    "1797": 357,
    "1798": 78,
    "1799": 106,
    "1800": 539,
    "1801": 106,
    "1802": 2253,
    "1803": 3858,
    "1804": 319,
    "1805": 2198,
    "1806": 86,
    "1807": 258,
    "1808": 2195,
    "1809": 8059,
    "1810": 739,
    "1811": 895,
    "1812": 86,
    "1813": 8272,
    "1814": 4185,
    "1815": 172,
    "1816": 1850,
    "1817": 86,
    "1818": 86,
    "1819": 415,
    "1820": 1500,
    "1821": 746,
    "1822": 86,
    "1823": 743,
    "1824": 86,
    "1825": 1090,
    "1826": 86,
    "1827": 86,
    "1828": 6649,
    "1829": 497,
    "1830": 86,
    "1831": 2481,
    "1832": 1403,
    "1833": 86,
    "1834": 86,
    "1835": 1227,
    "1836": 904,
    "1837": 173,
    "1838": 1993,
    "1839": 1359,
    "1840": 86,
    "1841": 412,
    "1842": 2300,
    "1843": 201,
    "1844": 259,
    "1845": 86,
    "1846": 1531,
    "1847": 1628,
    "1848": 1095,
    "1849": 173,
    "1850": 230,
    "1851": 3896,
    "1852": 1361,
    "1853": 86,
    "1854": 86,
    "1855": 5425,
    "1856": 881,
    "1857": 242,
    "1858": 1032,
    "1859": 1264,
    "1860": 1353,
    "1861": 172,
    "1862": 86,
    "1863": 86,
    "1864": 857,
    "1865": 581,
    "1866": 249,
    "1867": 86,
    "1868": 958,
    "1869": 231,
    "1870": 86,
    "1871": 86,
    "1872": 174,
    "1873": 174,
    "1874": 1475,
    "1875": 1496,
    "1876": 86,
    "1877": 86,
    "1878": 902,
    "1879": 86,
    "1880": 159,
    "1881": 251,
    "1882": 175,
    "1883": 1014,
    "1884": 87,
    "1885": 87,
    "1886": 864,
    "1887": 160,
    "1888": 394,
    "1889": 957,
    "1890": 87,
    "1891": 999,
    "1892": 1465,
    "1893": 258,
    "1894": 819,
    "1895": 87,
    "1896": 1282,
    "1897": 3746,
    "1898": 87,
    "1899": 87,
    "1900": 792,
    "1901": 534,
    "1902": 377,
    "1903": 14034,
    "1904": 87,
    "1905": 109,
    "1906": 499,
    "1907": 1096,
    "1908": 682,
    "1909": 259,
    "1910": 87,
    "1911": 87,
    "1912": 87,
    "1913": 433,
    "1914": 125,
    "1915": 453,
    "1916": 72,
    "1917": 12620,
    "1918": 324,
    "1919": 504,
    "1920": 125,
    "1921": 651,
    "1922": 2462,
    "1923": 229,
    "1924": 72,
    "1925": 368,
    "1926": 737,
    "1927": 723,
    "1928": 628,
    "1929": 5148,
    "1930": 8147,
    "1931": 1355,
    "1932": 286,
    "1933": 3075,
    "1934": 146,
    "1935": 329,
    "1936": 2273,
    "1937": 220,
    "1938": 226,
    "1939": 432,
    "1940": 782,
    "1941": 4818,
    "1942": 2528,
    "1943": 305,
    "1944": 337,
    "1945": 537,
    "1946": 786,
    "1947": 327,
    "1948": 7602,
    "1949": 1406,
    "1950": 3137,
    "1951": 2572,
    "1952": 10490,
    "1953": 2943,
    "1954": 7572,
    "1955": 8431,
    "1956": 1982,
    "1957": 174,
    "1958": 258,
    "1959": 216,
    "1960": 1784,
    "1961": 8186,
    "1962": 174,
    "1963": 410,
    "1964": 265,
    "1965": 506,
    "1966": 7561,
    "1967": 1073,
    "1968": 337,
    "1969": 1020,
    "1970": 2449,
    "1971": 2071,
    "1972": 742,
    "1973": 1052,
    "1974": 1919,
    "1975": 1352,
    "1976": 1352,
    "1977": 1352,
    "1978": 3404,
    "1979": 1855,
    "1980": 1482,
    "1981": 1828,
    "1982": 513,
    "1983": 160,
    "1984": 187,
    "1985": 185,
    "1986": 88,
    "1987": 459,
    "1988": 88,
    "1989": 834,
    "1990": 88,
    "1991": 854,
    "1992": 491,
    "1993": 88,
    "1994": 185,
    "1995": 88,
    "1996": 130,
    "1997": 83,
    "1998": 83,
    "1999": 234,
    "2000": 262,
    "2001": 875,
    "2002": 222,
    "2003": 240,
    "2004": 417,
    "2005": 156,
    "2006": 330,
    "2007": 1026,
    "2008": 1042,
    "2009": 1013,
    "2010": 404,
    "2011": 3369,
    "2012": 360,
    "2013": 428,
    "2014": 181,
    "2015": 213,
    "2016": 650,
    "2017": 2929,
    "2018": 314,
    "2019": 309,
    "2020": 228,
    "2021": 1064,
    "2022": 373,
    "2023": 83,
    "2024": 477,
    "2025": 394,
    "2026": 487,
    "2027": 83,
    "2028": 153,
    "2029": 1044,
    "2030": 83,
    "2031": 447,
    "2032": 117,
    "2033": 83,
    "2034": 117,
    "2035": 162,
    "2036": 91,
    "2037": 83,
    "2038": 837,
    "2039": 174,
    "2040": 83,
    "2041": 316,
    "2042": 137,
    "2043": 477,
    "2044": 976,
    "2045": 555,
    "2046": 85,
    "2047": 423,
    "2048": 74,
    "2049": 433,
    "2050": 587,
    "2051": 87,
    "2052": 95,
    "2053": 485,
    "2054": 305,
    "2055": 352,
    "2056": 394,
    "2057": 161,
    "2058": 501,
    "2059": 526,
    "2060": 732,
    "2061": 128,
    "2062": 414,
    "2063": 74,
    "2064": 459,
    "2065": 146,
    "2066": 74,
    "2067": 350,
    "2068": 74,
    "2069": 377,
    "2070": 87,
    "2071": 87,
    "2072": 146,
    "2073": 1348,
    "2074": 603,
    "2075": 74,
    "2076": 548,
    "2077": 1221,
    "2078": 146,
    "2079": 659,
    "2080": 159,
    "2081": 214,
    "2082": 87,
    "2083": 142,
    "2084": 392,
    "2085": 172,
    "2086": 151,
    "2087": 142,
    "2088": 187,
    "2089": 85,
    "2090": 85,
    "2091": 984,
    "2092": 124,
    "2093": 85,
    "2094": 10374,
    "2095": 1007,
    "2096": 298,
    "2097": 72,
    "2098": 85,
    "2099": 72,
    "2100": 72,
    "2101": 668,
    "2102": 3453,
    "2103": 85,
    "2104": 72,
    "2105": 85,
    "2106": 170,
    "2107": 72,
    "2108": 160,
    "2109": 356,
    "2110": 253,
    "2111": 262,
    "2112": 463,
    "2113": 253,
    "2114": 72,
    "2115": 384,
    "2116": 995,
    "2117": 151,
    "2118": 630,
    "2119": 91,
    "2120": 525,
    "2121": 84,
    "2122": 144,
    "2123": 436,
    "2124": 146,
    "2125": 532,
    "2126": 70,
    "2127": 105,
    "2128": 70,
    "2129": 216,
    "2130": 257,
    "2131": 2090,
    "2132": 155,
    "2133": 154,
    "2134": 144,
    "2135": 84,
    "2136": 143,
    "2137": 166,
    "2138": 167,
    "2139": 99,
    "2140": 84,
    "2141": 257,
    "2142": 424,
    "2143": 84,
    "2144": 83,
    "2145": 502,
    "2146": 86,
    "2147": 300,
    "2148": 78,
    "2149": 161,
    "2150": 118,
    "2151": 86,
    "2152": 86,
    "2153": 118,
    "2154": 152,
    "2155": 260,
    "2156": 118,
    "2157": 177,
    "2158": 118,
    "2159": 96,
    "2160": 178,
    "2161": 90,
    "2162": 118,
    "2163": 125,
    "2164": 92,
    "2165": 88,
    "2166": 104,
    "2167": 92,
    "2168": 86,
    "2169": 168,
    "2170": 72,
    "2171": 86,
    "2172": 288,
    "2173": 72,
    "2174": 90,
    "2175": 273,
    "2176": 162,
    "2177": 86,
    "2178": 144,
    "2179": 72,
    "2180": 88,
    "2181": 255,
    "2182": 94,
    "2183": 90,
    "2184": 703,
    "2185": 340,
    "2186": 844,
    "2187": 714,
    "2188": 1008,
    "2189": 344,
    "2190": 502,
    "2191": 1341,
    "2192": 175,
    "2193": 3672,
    "2194": 997,
    "2195": 2239,
    "2196": 494,
    "2197": 539,
    "2198": 490,
    "2199": 1341,
    "2200": 173,
    "2201": 478,
    "2202": 3679,
    "2203": 241,
    "2204": 1857,
    "2205": 1790,
    "2206": 861,
    "2207": 798,
    "2208": 823,
    "2209": 259,
    "2210": 117,
    "2211": 244,
    "2212": 156,
    "2213": 156,
    "2214": 673,
    "2215": 503,
    "2216": 2839,
    "2217": 342,
    "2218": 85,
    "2219": 723,
    "2220": 334,
    "2221": 346,
    "2222": 10966,
    "2223": 168,
    "2224": 87,
    "2225": 75,
    "2226": 235,
    "2227": 93,
    "2228": 648,
    "2229": 273,
    "2230": 87,
    "2231": 358,
    "2232": 371,
    "2233": 87,
    "2234": 87,
    "2235": 73,
    "2236": 453,
    "2237": 87,
    "2238": 173,
    "2239": 384,
    "2240": 87,
    "2241": 87,
    "2242": 314,
    "2243": 73,
    "2244": 93,
    "2245": 237,
    "2246": 334,
    "2247": 914,
    "2248": 87,
    "2249": 256,
    "2250": 111,
    "2251": 161,
    "2252": 163,
    "2253": 111,
    "2254": 73,
    "2255": 103,
    "2256": 95,
    "2257": 73,
    "2258": 87,
    "2259": 590,
    "2260": 73,
    "2261": 291,
    "2262": 88,
    "2263": 88,
    "2264": 74,
    "2265": 203,
    "2266": 76,
    "2267": 88,
    "2268": 322,
    "2269": 467,
    "2270": 150,
    "2271": 123,
    "2272": 88,
    "2273": 74,
    "2274": 93,
    "2275": 95,
    "2276": 88,
    "2277": 205,
    "2278": 172,
    "2279": 88,
    "2280": 151,
    "2281": 192,
    "2282": 135,
    "2283": 73,
    "2284": 516,
    "2285": 424,
    "2286": 202,
    "2287": 122,
    "2288": 87,
    "2289": 189,
    "2290": 145,
    "2291": 87,
    "2292": 156,
    "2293": 191,
    "2294": 193,
    "2295": 89,
    "2296": 87,
    "2297": 78,
    "2298": 80,
    "2299": 80,
    "2300": 121,
    "2301": 116,
    "2302": 90,
    "2303": 77,
    "2304": 97,
    "2305": 105,
    "2306": 50,
    "2307": 50,
    "2308": 50,
    "2309": 50,
    "2310": 88,
    "2311": 2557,
    "2312": 127,
    "2313": 1291,
    "2314": 2382,
    "2315": 165,
    "2316": 507,
    "2317": 118,
    "2318": 1535,
    "2319": 392,
    "2320": 129,
    "2321": 165,
    "2322": 161,
    "2323": 295,
    "2324": 2510,
    "2325": 4801,
    "2326": 1288,
    "2327": 206,
    "2328": 1851,
    "2329": 174,
    "2330": 88,
    "2331": 942,
    "2332": 88,
    "2333": 178,
    "2334": 109,
    "2335": 536,
    "2336": 175,
    "2337": 515,
    "2338": 88,
    "2339": 337,
    "2340": 4118,
    "2341": 88,
    "2342": 2637,
    "2343": 2409,
    "2344": 2020,
    "2345": 88,
    "2346": 88,
    "2347": 88,
    "2348": 88,
    "2349": 104,
    "2350": 162,
    "2351": 1064,
    "2352": 167,
    "2353": 260,
    "2354": 116,
    "2355": 174,
    "2356": 88,
    "2357": 104,
    "2358": 192,
    "2359": 88,
    "2360": 88,
    "2361": 351,
    "2362": 88,
    "2363": 320,
    "2364": 88,
    "2365": 88,
    "2366": 111,
    "2367": 262,
    "2368": 457,
    "2369": 88,
    "2370": 88,
    "2371": 260,
    "2372": 88,
    "2373": 2463,
    "2374": 2405,
    "2375": 2633,
    "2376": 680,
    "2377": 85,
    "2378": 169,
    "2379": 189,
    "2380": 211,
    "2381": 172,
    "2382": 633,
    "2383": 2253,
    "2384": 85,
    "2385": 171,
    "2386": 290,
    "2387": 14410,
    "2388": 2292,
    "2389": 412,
    "2390": 2677,
    "2391": 623,
    "2392": 592,
    "2393": 174,
    "2394": 2123,
    "2395": 2312,
    "2396": 89,
    "2397": 79,
    "2398": 89,
    "2399": 2066,
    "2400": 85,
    "2401": 177,
    "2402": 205,
    "2403": 89,
    "2404": 91,
    "2405": 91,
    "2406": 1889,
    "2407": 91,
    "2408": 91,
    "2409": 88,
    "2410": 1906,
    "2411": 263,
    "2412": 1978,
    "2413": 1906,
    "2414": 1906,
    "2415": 623,
    "2416": 1961,
    "2417": 150,
    "2418": 335,
    "2419": 545,
    "2420": 87,
    "2421": 96,
    "2422": 86,
    "2423": 182,
    "2424": 206,
    "2425": 135,
    "2426": 105,
    "2427": 170,
    "2428": 87,
    "2429": 86,
    "2430": 170,
    "2431": 86,
    "2432": 87,
    "2433": 607,
    "2434": 91,
    "2435": 160,
    "2436": 310,
    "2437": 87,
    "2438": 88,
    "2439": 88,
    "2440": 934,
    "2441": 214,
    "2442": 681,
    "2443": 90,
    "2444": 87,
    "2445": 160,
    "2446": 436,
    "2447": 330,
    "2448": 288,
    "2449": 94,
    "2450": 180,
    "2451": 94,
    "2452": 180,
    "2453": 1574,
    "2454": 262,
    "2455": 150,
    "2456": 364,
    "2457": 374,
    "2458": 102,
    "2459": 380,
    "2460": 92,
    "2461": 91,
    "2462": 91,
    "2463": 172,
    "2464": 94,
    "2465": 273,
    "2466": 374,
    "2467": 524,
    "2468": 175,
    "2469": 150,
    "2470": 192,
    "2471": 191,
    "2472": 91,
    "2473": 88,
    "2474": 276,
    "2475": 88,
    "2476": 162,
    "2477": 159,
    "2478": 3523,
    "2479": 86,
    "2480": 105,
    "2481": 89,
    "2482": 88,
    "2483": 120,
    "2484": 89,
    "2485": 88,
    "2486": 86,
    "2487": 86,
    "2488": 103,
    "2489": 89,
    "2490": 86,
    "2491": 102,
    "2492": 88,
    "2493": 339,
    "2494": 88,
    "2495": 425,
    "2496": 88,
    "2497": 86,
    "2498": 87,
    "2499": 87,
    "2500": 248,
    "2501": 87,
    "2502": 87,
    "2503": 86,
    "2504": 86,
    "2505": 189,
    "2506": 86,
    "2507": 206,
    "2508": 86,
    "2509": 402,
    "2510": 86,
    "2511": 86,
    "2512": 175,
    "2513": 86,
    "2514": 86,
    "2515": 110,
    "2516": 170,
    "2517": 103,
    "2518": 86,
    "2519": 87,
    "2520": 173,
    "2521": 798,
    "2522": 376,
    "2523": 300,
    "2524": 87,
    "2525": 173,
    "2526": 86,
    "2527": 189,
    "2528": 87,
    "2529": 174,
    "2530": 88,
    "2531": 243,
    "2532": 115,
    "2533": 89,
    "2534": 281,
    "2535": 86,
    "2536": 86,
    "2537": 1752,
    "2538": 86,
    "2539": 88,
    "2540": 88,
    "2541": 1268,
    "2542": 258,
    "2543": 214,
    "2544": 86,
    "2545": 560,
    "2546": 86,
    "2547": 86,
    "2548": 88,
    "2549": 183,
    "2550": 88,
    "2551": 86,
    "2552": 86,
    "2553": 88,
    "2554": 86,
    "2555": 88,
    "2556": 86,
    "2557": 86,
    "2558": 142,
    "2559": 88,
    "2560": 249,
    "2561": 88,
    "2562": 88,
    "2563": 391,
    "2564": 88,
    "2565": 186,
    "2566": 117,
    "2567": 162,
    "2568": 88,
    "2569": 86,
    "2570": 172,
    "2571": 88,
    "2572": 95,
    "2573": 137,
    "2574": 90,
    "2575": 98,
    "2576": 114,
    "2577": 98,
    "2578": 98,
    "2579": 163,
    "2580": 178,
    "2581": 162,
    "2582": 90,
    "2583": 319,
    "2584": 98,
    "2585": 119,
    "2586": 174,
    "2587": 95,
    "2588": 171,
    "2589": 115,
    "2590": 846,
    "2591": 86,
    "2592": 86,
    "2593": 86,
    "2594": 249,
    "2595": 86,
    "2596": 191,
    "2597": 163,
    "2598": 87,
    "2599": 88,
    "2600": 102,
    "2601": 258,
    "2602": 103,
    "2603": 139,
    "2604": 86,
    "2605": 1018,
    "2606": 87,
    "2607": 249,
    "2608": 257,
    "2609": 86,
    "2610": 86,
    "2611": 88,
    "2612": 189,
    "2613": 103,
    "2614": 87,
    "2615": 88,
    "2616": 86,
    "2617": 86,
    "2618": 175,
    "2619": 88,
    "2620": 615,
    "2621": 88,
    "2622": 102,
    "2623": 175,
    "2624": 104,
    "2625": 102,
    "2626": 88,
    "2627": 86,
    "2628": 935,
    "2629": 86,
    "2630": 732,
    "2631": 88,
    "2632": 88,
    "2633": 104,
    "2634": 86,
    "2635": 87,
    "2636": 493,
    "2637": 171,
    "2638": 821,
    "2639": 86,
    "2640": 86,
    "2641": 86,
    "2642": 102,
    "2643": 104,
    "2644": 104,
    "2645": 110,
    "2646": 88,
    "2647": 88,
    "2648": 110,
    "2649": 176,
    "2650": 116,
    "2651": 116,
    "2652": 110,
    "2653": 1347,
    "2654": 88,
    "2655": 88,
    "2656": 116,
    "2657": 110,
    "2658": 110,
    "2659": 160,
    "2660": 88,
    "2661": 116,
    "2662": 79,
    "2663": 1354,
    "2664": 897,
    "2665": 883,
    "2666": 108,
    "2667": 2031,
    "2668": 554,
    "2669": 326,
    "2670": 74,
    "2671": 233,
    "2672": 81,
    "2673": 1431,
    "2674": 81,
    "2675": 801,
    "2676": 305,
    "2677": 81,
    "2678": 10492,
    "2679": 161,
    "2680": 795,
    "2681": 1879,
    "2682": 566,
    "2683": 81,
    "2684": 10330,
    "2685": 243,
    "2686": 618,
    "2687": 79,
    "2688": 81,
    "2689": 10203,
    "2690": 81,
    "2691": 185,
    "2692": 795,
    "2693": 251,
    "2694": 861,
    "2695": 167,
    "2696": 88,
    "2697": 297,
    "2698": 9998,
    "2699": 289,
    "2700": 10275,
    "2701": 10647,
    "2702": 10619,
    "2703": 618,
    "2704": 607,
    "2705": 9966,
    "2706": 541,
    "2707": 263,
    "2708": 429,
    "2709": 115,
    "2710": 110,
    "2711": 74,
    "2712": 88,
    "2713": 88,
    "2714": 519,
    "2715": 88,
    "2716": 88,
    "2717": 86,
    "2718": 258,
    "2719": 159,
    "2720": 215,
    "2721": 90,
    "2722": 74,
    "2723": 145,
    "2724": 129,
    "2725": 112,
    "2726": 84,
    "2727": 85,
    "2728": 201,
    "2729": 151,
    "2730": 87,
    "2731": 73,
    "2732": 88,
    "2733": 85,
    "2734": 281,
    "2735": 247,
    "2736": 73,
    "2737": 146,
    "2738": 355,
    "2739": 85,
    "2740": 430,
    "2741": 87,
    "2742": 2471,
    "2743": 73,
    "2744": 84,
    "2745": 157,
    "2746": 122,
    "2747": 73,
    "2748": 87,
    "2749": 153,
    "2750": 85,
    "2751": 129,
    "2752": 82,
    "2753": 232,
    "2754": 122,
    "2755": 975,
    "2756": 84,
    "2757": 107,
    "2758": 86,
    "2759": 86,
    "2760": 84,
    "2761": 271,
    "2762": 216,
    "2763": 247,
    "2764": 84,
    "2765": 86,
    "2766": 86,
    "2767": 269,
    "2768": 247,
    "2769": 86,
    "2770": 212,
    "2771": 86,
    "2772": 240,
    "2773": 86,
    "2774": 487,
    "2775": 86,
    "2776": 276,
    "2777": 158,
    "2778": 438,
    "2779": 93,
    "2780": 182,
    "2781": 86,
    "2782": 304,
    "2783": 467,
    "2784": 161,
    "2785": 86,
    "2786": 86,
    "2787": 220,
    "2788": 305,
    "2789": 86,
    "2790": 276,
    "2791": 249,
    "2792": 314,
    "2793": 86,
    "2794": 86,
    "2795": 86,
    "2796": 86,
    "2797": 169,
    "2798": 86,
    "2799": 86,
    "2800": 86,
    "2801": 238,
    "2802": 86,
    "2803": 86,
    "2804": 86,
    "2805": 86,
    "2806": 86,
    "2807": 3498,
    "2808": 136,
    "2809": 111,
    "2810": 86,
    "2811": 170,
    "2812": 171,
    "2813": 86,
    "2814": 86,
    "2815": 86,
    "2816": 86,
    "2817": 112,
    "2818": 161,
    "2819": 135,
    "2820": 135,
    "2821": 90,
    "2822": 90,
    "2823": 86,
    "2824": 210,
    "2825": 86,
    "2826": 86,
    "2827": 86,
    "2828": 86,
    "2829": 86,
    "2830": 86,
    "2831": 86,
    "2832": 1106,
    "2833": 86,
    "2834": 86,
    "2835": 86,
    "2836": 86,
    "2837": 244,
    "2838": 133,
    "2839": 112,
    "2840": 86,
    "2841": 86,
    "2842": 86,
    "2843": 104,
    "2844": 86,
    "2845": 86,
    "2846": 132,
    "2847": 200,
    "2848": 85,
    "2849": 85,
    "2850": 85,
    "2851": 218,
    "2852": 130,
    "2853": 85,
    "2854": 101,
    "2855": 101,
    "2856": 85,
    "2857": 85,
    "2858": 85,
    "2859": 531,
    "2860": 85,
    "2861": 251,
    "2862": 436,
    "2863": 302,
    "2864": 85,
    "2865": 85,
    "2866": 182,
    "2867": 172,
    "2868": 85,
    "2869": 85,
    "2870": 85,
    "2871": 166,
    "2872": 85,
    "2873": 85,
    "2874": 99,
    "2875": 158,
    "2876": 85,
    "2877": 910,
    "2878": 257,
    "2879": 85,
    "2880": 160,
    "2881": 184,
    "2882": 86,
    "2883": 158,
    "2884": 86,
    "2885": 734,
    "2886": 322,
    "2887": 704,
    "2888": 415,
    "2889": 792,
    "2890": 88,
    "2891": 88,
    "2892": 3764,
    "2893": 234,
    "2894": 307,
    "2895": 162,
    "2896": 265,
    "2897": 88,
    "2898": 3767,
    "2899": 1419,
    "2900": 1065,
    "2901": 88,
    "2902": 175,
    "2903": 170,
    "2904": 792,
    "2905": 88,
    "2906": 88,
    "2907": 463,
    "2908": 810,
    "2909": 88,
    "2910": 216,
    "2911": 88,
    "2912": 175,
    "2913": 88,
    "2914": 148,
    "2915": 88,
    "2916": 88,
    "2917": 120,
    "2918": 88,
    "2919": 162,
    "2920": 1737,
    "2921": 87,
    "2922": 90,
    "2923": 87,
    "2924": 89,
    "2925": 90,
    "2926": 89,
    "2927": 183,
    "2928": 501,
    "2929": 174,
    "2930": 90,
    "2931": 87,
    "2932": 87,
    "2933": 87,
    "2934": 103,
    "2935": 85,
    "2936": 87,
    "2937": 90,
    "2938": 2867,
    "2939": 87,
    "2940": 134,
    "2941": 103,
    "2942": 202,
    "2943": 90,
    "2944": 564,
    "2945": 3850,
    "2946": 564,
    "2947": 90,
    "2948": 799,
    "2949": 90,
    "2950": 90,
    "2951": 90,
    "2952": 90,
    "2953": 234,
    "2954": 205,
    "2955": 88,
    "2956": 341,
    "2957": 88,
    "2958": 481,
    "2959": 796,
    "2960": 461,
    "2961": 992,
    "2962": 359,
    "2963": 3518,
    "2964": 88,
    "2965": 88,
    "2966": 91,
    "2967": 88,
    "2968": 127,
    "2969": 111,
    "2970": 867,
    "2971": 88,
    "2972": 111,
    "2973": 111,
    "2974": 91,
    "2975": 796,
    "2976": 1739,
    "2977": 127,
    "2978": 88,
    "2979": 342,
    "2980": 994,
    "2981": 342,
    "2982": 88,
    "2983": 810,
    "2984": 88,
    "2985": 796,
    "2986": 633,
    "2987": 153,
    "2988": 88,
    "2989": 88,
    "2990": 88,
    "2991": 88,
    "2992": 91,
    "2993": 317,
    "2994": 88,
    "2995": 88,
    "2996": 88,
    "2997": 88,
    "2998": 91,
    "2999": 88,
    "3000": 88,
    "3001": 864,
    "3002": 88,
    "3003": 88,
    "3004": 118,
    "3005": 88,
    "3006": 130,
    "3007": 105,
    "3008": 90,
    "3009": 91,
    "3010": 152,
    "3011": 130,
    "3012": 88,
    "3013": 103,
    "3014": 88,
    "3015": 91,
    "3016": 88,
    "3017": 116,
    "3018": 118,
    "3019": 88,
    "3020": 173,
    "3021": 91,
    "3022": 88,
    "3023": 152,
    "3024": 134,
    "3025": 135,
    "3026": 88,
    "3027": 116,
    "3028": 112,
    "3029": 88,
    "3030": 88,
    "3031": 88,
    "3032": 88,
    "3033": 112,
    "3034": 88,
    "3035": 88,
    "3036": 134,
    "3037": 307,
    "3038": 88,
    "3039": 86,
    "3040": 88,
    "3041": 88,
    "3042": 88,
    "3043": 89,
    "3044": 578,
    "3045": 1504,
    "3046": 88,
    "3047": 88,
    "3048": 88,
    "3049": 762,
    "3050": 88,
    "3051": 3215,
    "3052": 88,
    "3053": 4080,
    "3054": 88,
    "3055": 546,
    "3056": 88,
    "3057": 142,
    "3058": 149,
    "3059": 158,
    "3060": 88,
    "3061": 88,
    "3062": 88,
    "3063": 111,
    "3064": 107,
    "3065": 160,
    "3066": 159,
    "3067": 88,
    "3068": 88,
    "3069": 88,
    "3070": 88,
    "3071": 88,
    "3072": 88,
    "3073": 89,
    "3074": 88,
    "3075": 88,
    "3076": 88,
    "3077": 88,
    "3078": 151,
    "3079": 167,
    "3080": 88,
    "3081": 88,
    "3082": 92,
    "3083": 88,
    "3084": 88,
    "3085": 88,
    "3086": 167,
    "3087": 88,
    "3088": 120,
    "3089": 167,
    "3090": 120,
    "3091": 181,
    "3092": 88,
    "3093": 88,
    "3094": 90,
    "3095": 90,
    "3096": 88,
    "3097": 88,
    "3098": 88,
    "3099": 88,
    "3100": 169,
    "3101": 289,
    "3102": 88,
    "3103": 949,
    "3104": 711,
    "3105": 369,
    "3106": 88,
    "3107": 394,
    "3108": 928,
    "3109": 173,
    "3110": 147,
    "3111": 373,
    "3112": 264,
    "3113": 332,
    "3114": 246,
    "3115": 106,
    "3116": 711,
    "3117": 178,
    "3118": 74,
    "3119": 796,
    "3120": 88,
    "3121": 158,
    "3122": 467,
    "3123": 756,
    "3124": 332,
    "3125": 924,
    "3126": 703,
    "3127": 119,
    "3128": 172,
    "3129": 158,
    "3130": 173,
    "3131": 513,
    "3132": 467,
    "3133": 74,
    "3134": 246,
    "3135": 74,
    "3136": 227,
    "3137": 145,
    "3138": 88,
    "3139": 604,
    "3140": 201,
    "3141": 88,
    "3142": 117,
    "3143": 88,
    "3144": 186,
    "3145": 74,
    "3146": 471,
    "3147": 88,
    "3148": 215,
    "3149": 234,
    "3150": 86,
    "3151": 343,
    "3152": 86,
    "3153": 282,
    "3154": 149,
    "3155": 194,
    "3156": 159,
    "3157": 603,
    "3158": 86,
    "3159": 203,
    "3160": 90,
    "3161": 613,
    "3162": 74,
    "3163": 114,
    "3164": 175,
    "3165": 74,
    "3166": 114,
    "3167": 243,
    "3168": 85,
    "3169": 167,
    "3170": 88,
    "3171": 88,
    "3172": 174,
    "3173": 74,
    "3174": 184,
    "3175": 73,
    "3176": 102,
    "3177": 184,
    "3178": 88,
    "3179": 117,
    "3180": 161,
    "3181": 74,
    "3182": 117,
    "3183": 173,
    "3184": 87,
    "3185": 88,
    "3186": 88,
    "3187": 102,
    "3188": 218,
    "3189": 172,
    "3190": 72,
    "3191": 212,
    "3192": 101,
    "3193": 87,
    "3194": 73,
    "3195": 73,
    "3196": 73,
    "3197": 87,
    "3198": 328,
    "3199": 72,
    "3200": 196,
    "3201": 147,
    "3202": 87,
    "3203": 150,
    "3204": 87,
    "3205": 159,
    "3206": 73,
    "3207": 101,
    "3208": 87,
    "3209": 228,
    "3210": 121,
    "3211": 86,
    "3212": 140,
    "3213": 240,
    "3214": 86,
    "3215": 86,
    "3216": 495,
    "3217": 86,
    "3218": 86,
    "3219": 86,
    "3220": 232,
    "3221": 155,
    "3222": 142,
    "3223": 86,
    "3224": 126,
    "3225": 123,
    "3226": 238,
    "3227": 85,
    "3228": 87,
    "3229": 87,
    "3230": 87,
    "3231": 87,
    "3232": 87,
    "3233": 87,
    "3234": 87,
    "3235": 87,
    "3236": 104,
    "3237": 87,
    "3238": 116,
    "3239": 214,
    "3240": 198,
    "3241": 87,
    "3242": 87,
    "3243": 86,
    "3244": 86,
    "3245": 86,
    "3246": 86,
    "3247": 195,
    "3248": 86,
    "3249": 243,
    "3250": 121,
    "3251": 86,
    "3252": 86,
    "3253": 86,
    "3254": 86,
    "3255": 86,
    "3256": 86,
    "3257": 137,
    "3258": 187,
    "3259": 86,
    "3260": 226,
    "3261": 86,
    "3262": 86,
    "3263": 160,
    "3264": 86,
    "3265": 121,
    "3266": 86,
    "3267": 86,
    "3268": 86,
    "3269": 124,
    "3270": 86,
    "3271": 88,
    "3272": 86,
    "3273": 143,
    "3274": 86,
    "3275": 89,
    "3276": 86,
    "3277": 86,
    "3278": 86,
    "3279": 86,
    "3280": 86,
    "3281": 291,
    "3282": 86,
    "3283": 86,
    "3284": 143,
    "3285": 199,
    "3286": 86,
    "3287": 203,
    "3288": 86,
    "3289": 124,
    "3290": 155,
    "3291": 502,
    "3292": 86,
    "3293": 158,
    "3294": 217,
    "3295": 86,
    "3296": 97,
    "3297": 86,
    "3298": 110,
    "3299": 86,
    "3300": 86,
    "3301": 86,
    "3302": 86,
    "3303": 300,
    "3304": 117,
    "3305": 86,
    "3306": 171,
    "3307": 86,
    "3308": 86,
    "3309": 117,
    "3310": 238,
    "3311": 86,
    "3312": 103,
    "3313": 86,
    "3314": 86,
    "3315": 86,
    "3316": 1874,
    "3317": 96,
    "3318": 86,
    "3319": 113,
    "3320": 97,
    "3321": 86,
    "3322": 86,
    "3323": 86,
    "3324": 86,
    "3325": 86,
    "3326": 155,
    "3327": 80,
    "3328": 186,
    "3329": 651,
    "3330": 86,
    "3331": 169,
    "3332": 382,
    "3333": 86,
    "3334": 3577,
    "3335": 115,
    "3336": 115,
    "3337": 80,
    "3338": 190,
    "3339": 82,
    "3340": 1615,
    "3341": 139,
    "3342": 161,
    "3343": 82,
    "3344": 86,
    "3345": 254,
    "3346": 171,
    "3347": 80,
    "3348": 167,
    "3349": 154,
    "3350": 110,
    "3351": 80,
    "3352": 348,
    "3353": 86,
    "3354": 80,
    "3355": 80,
    "3356": 140,
    "3357": 171,
    "3358": 80,
    "3359": 318,
    "3360": 86,
    "3361": 80,
    "3362": 80,
    "3363": 84,
    "3364": 110,
    "3365": 86,
    "3366": 86,
    "3367": 132,
    "3368": 332,
    "3369": 259,
    "3370": 80,
    "3371": 80,
    "3372": 225,
    "3373": 86,
    "3374": 170,
    "3375": 80,
    "3376": 479,
    "3377": 86,
    "3378": 86,
    "3379": 80,
    "3380": 587,
    "3381": 86,
    "3382": 86,
    "3383": 80,
    "3384": 86,
    "3385": 86,
    "3386": 84,
    "3387": 123,
    "3388": 213,
    "3389": 80,
    "3390": 86,
    "3391": 80,
    "3392": 330,
    "3393": 86,
    "3394": 86,
    "3395": 125,
    "3396": 86,
    "3397": 173,
    "3398": 86,
    "3399": 86,
    "3400": 173,
    "3401": 256,
    "3402": 86,
    "3403": 86,
    "3404": 202,
    "3405": 86,
    "3406": 86,
    "3407": 86,
    "3408": 171,
    "3409": 86,
    "3410": 86,
    "3411": 101,
    "3412": 86,
    "3413": 80,
    "3414": 86,
    "3415": 924,
    "3416": 164,
    "3417": 107,
    "3418": 86,
    "3419": 107,
    "3420": 122,
    "3421": 86,
    "3422": 86,
    "3423": 86,
    "3424": 107,
    "3425": 251,
    "3426": 86,
    "3427": 86,
    "3428": 86,
    "3429": 86,
    "3430": 86,
    "3431": 228,
    "3432": 86,
    "3433": 86,
    "3434": 86,
    "3435": 86,
    "3436": 86,
    "3437": 86,
    "3438": 86,
    "3439": 86,
    "3440": 115,
    "3441": 86,
    "3442": 117,
    "3443": 115,
    "3444": 3853,
    "3445": 86,
    "3446": 277,
    "3447": 86,
    "3448": 100,
    "3449": 203,
    "3450": 115,
    "3451": 86,
    "3452": 86,
    "3453": 86,
    "3454": 86,
    "3455": 86,
    "3456": 86,
    "3457": 198,
    "3458": 86,
    "3459": 118,
    "3460": 86,
    "3461": 86,
    "3462": 86,
    "3463": 86,
    "3464": 120,
    "3465": 136,
    "3466": 173,
    "3467": 86,
    "3468": 86,
    "3469": 86,
    "3470": 86,
    "3471": 118,
    "3472": 158,
    "3473": 86,
    "3474": 86,
    "3475": 86,
    "3476": 419,
    "3477": 86,
    "3478": 86,
    "3479": 86,
    "3480": 86,
    "3481": 86,
    "3482": 86,
    "3483": 86,
    "3484": 86,
    "3485": 153,
    "3486": 86,
    "3487": 125,
    "3488": 345,
    "3489": 86,
    "3490": 86,
    "3491": 117,
    "3492": 86,
    "3493": 86,
    "3494": 530,
    "3495": 86,
    "3496": 133,
    "3497": 116,
    "3498": 86,
    "3499": 86,
    "3500": 86,
    "3501": 143,
    "3502": 187,
    "3503": 86,
    "3504": 2064,
    "3505": 86,
    "3506": 86,
    "3507": 159,
    "3508": 121,
    "3509": 102,
    "3510": 86,
    "3511": 190,
    "3512": 102,
    "3513": 100,
    "3514": 216,
    "3515": 102,
    "3516": 166,
    "3517": 79,
    "3518": 79,
    "3519": 79,
    "3520": 79,
    "3521": 493,
    "3522": 148,
    "3523": 496,
    "3524": 86,
    "3525": 86,
    "3526": 133,
    "3527": 493,
    "3528": 86,
    "3529": 493,
    "3530": 496,
    "3531": 577,
    "3532": 600,
    "3533": 86,
    "3534": 131,
    "3535": 173,
    "3536": 571,
    "3537": 157,
    "3538": 86,
    "3539": 496,
    "3540": 493,
    "3541": 148,
    "3542": 670,
    "3543": 86,
    "3544": 482,
    "3545": 1172,
    "3546": 533,
    "3547": 496,
    "3548": 90,
    "3549": 493,
    "3550": 86,
    "3551": 496,
    "3552": 490,
    "3553": 86,
    "3554": 114,
    "3555": 89,
    "3556": 86,
    "3557": 119,
    "3558": 134,
    "3559": 89,
    "3560": 89,
    "3561": 114,
    "3562": 86,
    "3563": 86,
    "3564": 86,
    "3565": 89,
    "3566": 162,
    "3567": 86,
    "3568": 105,
    "3569": 89,
    "3570": 86,
    "3571": 88,
    "3572": 88,
    "3573": 88,
    "3574": 130,
    "3575": 88,
    "3576": 147,
    "3577": 88,
    "3578": 88,
    "3579": 88,
    "3580": 445,
    "3581": 243,
    "3582": 243,
    "3583": 507,
    "3584": 388,
    "3585": 243,
    "3586": 1573,
    "3587": 243,
    "3588": 316,
    "3589": 88,
    "3590": 88,
    "3591": 88,
    "3592": 88,
    "3593": 88,
    "3594": 163,
    "3595": 1028,
    "3596": 88,
    "3597": 88,
    "3598": 111,
    "3599": 156,
    "3600": 88,
    "3601": 88,
    "3602": 88,
    "3603": 111,
    "3604": 115,
    "3605": 88,
    "3606": 88,
    "3607": 148,
    "3608": 88,
    "3609": 88,
    "3610": 138,
    "3611": 2377,
    "3612": 88,
    "3613": 123,
    "3614": 88,
    "3615": 132,
    "3616": 88,
    "3617": 88,
    "3618": 88,
    "3619": 88,
    "3620": 88,
    "3621": 88,
    "3622": 88,
    "3623": 89,
    "3624": 88,
    "3625": 88,
    "3626": 88,
    "3627": 88,
    "3628": 117,
    "3629": 117,
    "3630": 86,
    "3631": 88,
    "3632": 88,
    "3633": 88,
    "3634": 88,
    "3635": 88,
    "3636": 88,
    "3637": 108,
    "3638": 88,
    "3639": 108,
    "3640": 115,
    "3641": 88,
    "3642": 89,
    "3643": 89,
    "3644": 88,
    "3645": 115,
    "3646": 88,
    "3647": 88,
    "3648": 88,
    "3649": 88,
    "3650": 88,
    "3651": 161,
    "3652": 160,
    "3653": 88,
    "3654": 122,
    "3655": 86,
    "3656": 122,
    "3657": 88,
    "3658": 115,
    "3659": 88,
    "3660": 88,
    "3661": 86,
    "3662": 88,
    "3663": 115,
    "3664": 88,
    "3665": 86,
    "3666": 86,
    "3667": 86,
    "3668": 88,
    "3669": 86,
    "3670": 90,
    "3671": 83,
    "3672": 88,
    "3673": 88,
    "3674": 160,
    "3675": 88,
    "3676": 113,
    "3677": 177,
    "3678": 113,
    "3679": 116,
    "3680": 90,
    "3681": 88,
    "3682": 88,
    "3683": 88,
    "3684": 88,
    "3685": 90,
    "3686": 90,
    "3687": 86,
    "3688": 88,
    "3689": 180,
    "3690": 108,
    "3691": 642,
    "3692": 2088,
    "3693": 74,
    "3694": 72,
    "3695": 1857,
    "3696": 92,
    "3697": 1942,
    "3698": 1494,
    "3699": 144,
    "3700": 170,
    "3701": 2108,
    "3702": 457,
    "3703": 7814,
    "3704": 476,
    "3705": 92,
    "3706": 72,
    "3707": 1241,
    "3708": 6298,
    "3709": 220,
    "3710": 92,
    "3711": 2492,
    "3712": 1778,
    "3713": 3768,
    "3714": 360,
    "3715": 92,
    "3716": 628,
    "3717": 461,
    "3718": 217,
    "3719": 482,
    "3720": 2995,
    "3721": 92,
    "3722": 700,
    "3723": 419,
    "3724": 370,
    "3725": 236,
    "3726": 1480,
    "3727": 164,
    "3728": 120,
    "3729": 72,
    "3730": 1672,
    "3731": 233,
    "3732": 340,
    "3733": 489,
    "3734": 1429,
    "3735": 1331,
    "3736": 72,
    "3737": 1009,
    "3738": 2123,
    "3739": 193,
    "3740": 951,
    "3741": 407,
    "3742": 72,
    "3743": 215,
    "3744": 231,
    "3745": 1612,
    "3746": 360,
    "3747": 72,
    "3748": 3534,
    "3749": 72,
    "3750": 1475,
    "3751": 240,
    "3752": 263,
    "3753": 841,
    "3754": 244,
    "3755": 267,
    "3756": 1377,
    "3757": 252,
    "3758": 332,
    "3759": 274,
    "3760": 436,
    "3761": 1345,
    "3762": 429,
    "3763": 3522,
    "3764": 815,
    "3765": 1941,
    "3766": 418,
    "3767": 145,
    "3768": 274,
    "3769": 148,
    "3770": 570,
    "3771": 626,
    "3772": 148,
    "3773": 308,
    "3774": 148,
    "3775": 1542,
    "3776": 856,
    "3777": 860,
    "3778": 1130,
    "3779": 374,
    "3780": 744,
    "3781": 172,
    "3782": 601,
    "3783": 1396,
    "3784": 641,
    "3785": 320,
    "3786": 877,
    "3787": 832,
    "3788": 567,
    "3789": 567,
    "3790": 1070,
    "3791": 1039,
    "3792": 3260,
    "3793": 1381,
    "3794": 276,
    "3795": 192,
    "3796": 118,
    "3797": 1276,
    "3798": 528,
    "3799": 381,
    "3800": 717,
    "3801": 1883,
    "3802": 568,
    "3803": 328,
    "3804": 1219,
    "3805": 3074,
    "3806": 660,
    "3807": 596,
    "3808": 342,
    "3809": 1067,
    "3810": 460,
    "3811": 234,
    "3812": 344,
    "3813": 668,
    "3814": 3820,
    "3815": 573,
    "3816": 1031,
    "3817": 941,
    "3818": 318,
    "3819": 248,
    "3820": 150,
    "3821": 336,
    "3822": 256,
    "3823": 70,
    "3824": 116,
    "3825": 2028,
    "3826": 215,
    "3827": 466,
    "3828": 156,
    "3829": 849,
    "3830": 457,
    "3831": 143,
    "3832": 188,
    "3833": 273,
    "3834": 128,
    "3835": 2992,
    "3836": 128,
    "3837": 288,
    "3838": 969,
    "3839": 1091,
    "3840": 314,
    "3841": 144,
    "3842": 231,
    "3843": 421,
    "3844": 310,
    "3845": 145,
    "3846": 72,
    "3847": 145,
    "3848": 144,
    "3849": 145,
    "3850": 145,
    "3851": 145,
    "3852": 145,
    "3853": 217,
    "3854": 144,
    "3855": 159,
    "3856": 72,
    "3857": 145,
    "3858": 72,
    "3859": 506,
    "3860": 1307,
    "3861": 147,
    "3862": 879,
    "3863": 788,
    "3864": 216,
    "3865": 306,
    "3866": 779,
    "3867": 431,
    "3868": 198,
    "3869": 784,
    "3870": 72,
    "3871": 323,
    "3872": 474,
    "3873": 345,
    "3874": 343,
    "3875": 571,
    "3876": 290,
    "3877": 977,
    "3878": 75,
    "3879": 791,
    "3880": 434,
    "3881": 632,
    "3882": 710,
    "3883": 199,
    "3884": 269,
    "3885": 286,
    "3886": 75,
    "3887": 487,
    "3888": 312,
    "3889": 128,
    "3890": 188,
    "3891": 355,
    "3892": 454,
    "3893": 219,
    "3894": 218,
    "3895": 401,
    "3896": 272,
    "3897": 1228,
    "3898": 219,
    "3899": 1101,
    "3900": 980,
    "3901": 500,
    "3902": 476,
    "3903": 1650,
    "3904": 127,
    "3905": 145,
    "3906": 142,
    "3907": 72,
    "3908": 189,
    "3909": 197,
    "3910": 273,
    "3911": 311,
    "3912": 671,
    "3913": 150,
    "3914": 826,
    "3915": 478,
    "3916": 1262,
    "3917": 368,
    "3918": 342,
    "3919": 218,
    "3920": 872,
    "3921": 1169,
    "3922": 207,
    "3923": 126,
    "3924": 144,
    "3925": 73,
    "3926": 145,
    "3927": 405,
    "3928": 479,
    "3929": 295,
    "3930": 132,
    "3931": 144,
    "3932": 1195,
    "3933": 72,
    "3934": 411,
    "3935": 474,
    "3936": 72,
    "3937": 990,
    "3938": 118,
    "3939": 163,
    "3940": 293,
    "3941": 401,
    "3942": 74,
    "3943": 1151,
    "3944": 183,
    "3945": 858,
    "3946": 254,
    "3947": 326,
    "3948": 183,
    "3949": 296,
    "3950": 366,
    "3951": 164,
    "3952": 72,
    "3953": 2603,
    "3954": 940,
    "3955": 72,
    "3956": 75,
    "3957": 1566,
    "3958": 72,
    "3959": 1271,
    "3960": 144,
    "3961": 164,
    "3962": 1930,
    "3963": 72,
    "3964": 2513,
    "3965": 72,
    "3966": 217,
    "3967": 113,
    "3968": 72,
    "3969": 72,
    "3970": 72,
    "3971": 72,
    "3972": 72,
    "3973": 72,
    "3974": 146,
    "3975": 72,
    "3976": 72,
    "3977": 146,
    "3978": 128,
    "3979": 216,
    "3980": 382,
    "3981": 219,
    "3982": 146,
    "3983": 221,
    "3984": 216,
    "3985": 75,
    "3986": 72,
    "3987": 72,
    "3988": 399,
    "3989": 90,
    "3990": 2265,
    "3991": 480,
    "3992": 499,
    "3993": 362,
    "3994": 74,
    "3995": 127,
    "3996": 191,
    "3997": 290,
    "3998": 119,
    "3999": 215,
    "4000": 157,
    "4001": 351,
    "4002": 810,
    "4003": 72,
    "4004": 72,
    "4005": 144,
    "4006": 395,
    "4007": 218,
    "4008": 635,
    "4009": 356,
    "4010": 681,
    "4011": 265,
    "4012": 144,
    "4013": 557,
    "4014": 883,
    "4015": 1201,
    "4016": 276,
    "4017": 124,
    "4018": 162,
    "4019": 124,
    "4020": 124,
    "4021": 124,
    "4022": 201,
    "4023": 72,
    "4024": 72,
    "4025": 137,
    "4026": 203,
    "4027": 122,
    "4028": 122,
    "4029": 122,
    "4030": 122,
    "4031": 122,
    "4032": 127,
    "4033": 482,
    "4034": 272,
    "4035": 127,
    "4036": 198,
    "4037": 345,
    "4038": 76,
    "4039": 220,
    "4040": 220,
    "4041": 72,
    "4042": 220,
    "4043": 462,
    "4044": 467,
    "4045": 172,
    "4046": 223,
    "4047": 146,
    "4048": 204,
    "4049": 147,
    "4050": 410,
    "4051": 654,
    "4052": 74,
    "4053": 222,
    "4054": 72,
    "4055": 74,
    "4056": 675,
    "4057": 976,
    "4058": 524,
    "4059": 554,
    "4060": 825,
    "4061": 317,
    "4062": 317,
    "4063": 704,
    "4064": 317,
    "4065": 153,
    "4066": 625,
    "4067": 375,
    "4068": 226,
    "4069": 229,
    "4070": 540,
    "4071": 232,
    "4072": 937,
    "4073": 329,
    "4074": 369,
    "4075": 148,
    "4076": 149,
    "4077": 368,
    "4078": 220,
    "4079": 316,
    "4080": 885,
    "4081": 617,
    "4082": 290,
    "4083": 380,
    "4084": 1088,
    "4085": 201,
    "4086": 187,
    "4087": 350,
    "4088": 368,
    "4089": 374,
    "4090": 299,
    "4091": 500,
    "4092": 336,
    "4093": 255,
    "4094": 147,
    "4095": 255,
    "4096": 441,
    "4097": 710,
    "4098": 497,
    "4099": 296,
    "4100": 128,
    "4101": 72,
    "4102": 75,
    "4103": 72,
    "4104": 75,
    "4105": 72,
    "4106": 583,
    "4107": 617,
    "4108": 340,
    "4109": 72,
    "4110": 190,
    "4111": 460,
    "4112": 330,
    "4113": 357,
    "4114": 73,
    "4115": 216,
    "4116": 415,
    "4117": 275,
    "4118": 1036,
    "4119": 342,
    "4120": 342,
    "4121": 400,
    "4122": 146,
    "4123": 240,
    "4124": 73,
    "4125": 914,
    "4126": 73,
    "4127": 253,
    "4128": 199,
    "4129": 221,
    "4130": 73,
    "4131": 475,
    "4132": 270,
    "4133": 199,
    "4134": 372,
    "4135": 261,
    "4136": 223,
    "4137": 89,
    "4138": 147,
    "4139": 294,
    "4140": 75,
    "4141": 89,
    "4142": 89,
    "4143": 157,
    "4144": 146,
    "4145": 515,
    "4146": 197,
    "4147": 125,
    "4148": 147,
    "4149": 75,
    "4150": 625,
    "4151": 316,
    "4152": 259,
    "4153": 1337,
    "4154": 316,
    "4155": 113,
    "4156": 239,
    "4157": 240,
    "4158": 377,
    "4159": 336,
    "4160": 147,
    "4161": 602,
    "4162": 300,
    "4163": 73,
    "4164": 483,
    "4165": 155,
    "4166": 958,
    "4167": 842,
    "4168": 509,
    "4169": 73,
    "4170": 441,
    "4171": 439,
    "4172": 532,
    "4173": 278,
    "4174": 1493,
    "4175": 155,
    "4176": 117,
    "4177": 111,
    "4178": 293,
    "4179": 157,
    "4180": 566,
    "4181": 310,
    "4182": 73,
    "4183": 564,
    "4184": 73,
    "4185": 71,
    "4186": 1075,
    "4187": 402,
    "4188": 299,
    "4189": 201,
    "4190": 99,
    "4191": 608,
    "4192": 143,
    "4193": 246,
    "4194": 91,
    "4195": 91,
    "4196": 75,
    "4197": 1220,
    "4198": 75,
    "4199": 75,
    "4200": 202,
    "4201": 202,
    "4202": 73,
    "4203": 129,
    "4204": 150,
    "4205": 206,
    "4206": 73,
    "4207": 131,
    "4208": 319,
    "4209": 377,
    "4210": 73,
    "4211": 73,
    "4212": 219,
    "4213": 73,
    "4214": 304,
    "4215": 103,
    "4216": 73,
    "4217": 73,
    "4218": 379,
    "4219": 371,
    "4220": 203,
    "4221": 373,
    "4222": 73,
    "4223": 75,
    "4224": 630,
    "4225": 602,
    "4226": 441,
    "4227": 201,
    "4228": 220,
    "4229": 197,
    "4230": 603,
    "4231": 73,
    "4232": 73,
    "4233": 73,
    "4234": 73,
    "4235": 73,
    "4236": 215,
    "4237": 201,
    "4238": 232,
    "4239": 257,
    "4240": 156,
    "4241": 112,
    "4242": 290,
    "4243": 73,
    "4244": 1191,
    "4245": 130,
    "4246": 73,
    "4247": 73,
    "4248": 130,
    "4249": 205,
    "4250": 204,
    "4251": 73,
    "4252": 74,
    "4253": 218,
    "4254": 322,
    "4255": 73,
    "4256": 353,
    "4257": 111,
    "4258": 113,
    "4259": 111,
    "4260": 78,
    "4261": 1743,
    "4262": 538,
    "4263": 78,
    "4264": 208,
    "4265": 127,
    "4266": 178,
    "4267": 496,
    "4268": 73,
    "4269": 208,
    "4270": 73,
    "4271": 73,
    "4272": 783,
    "4273": 228,
    "4274": 109,
    "4275": 155,
    "4276": 71,
    "4277": 312,
    "4278": 71,
    "4279": 909,
    "4280": 71,
    "4281": 73,
    "4282": 73,
    "4283": 65,
    "4284": 273,
    "4285": 65,
    "4286": 190,
    "4287": 294,
    "4288": 991,
    "4289": 72,
    "4290": 405,
    "4291": 117,
    "4292": 268,
    "4293": 152,
    "4294": 717,
    "4295": 164,
    "4296": 200,
    "4297": 145,
    "4298": 125,
    "4299": 196,
    "4300": 196,
    "4301": 270,
    "4302": 198,
    "4303": 272,
    "4304": 125,
    "4305": 125,
    "4306": 129,
    "4307": 402,
    "4308": 40,
    "4309": 158,
    "4310": 189,
    "4311": 40,
    "4312": 71,
    "4313": 44,
    "4314": 495,
    "4315": 46,
    "4316": 86,
    "4317": 100,
    "4318": 78,
    "4319": 112,
    "4320": 78,
    "4321": 148,
    "4322": 78,
    "4323": 78,
    "4324": 181,
    "4325": 66,
    "4326": 69,
    "4327": 107,
    "4328": 109,
    "4329": 60,
    "4330": 105,
    "4331": 143,
    "4332": 71,
    "4333": 311,
    "4334": 64,
    "4335": 65,
    "4336": 74,
    "4337": 175,
    "4338": 74,
    "4339": 61,
    "4340": 74,
    "4341": 424,
    "4342": 61,
    "4343": 180,
    "4344": 145,
    "4345": 497,
    "4346": 494,
    "4347": 538,
    "4348": 373,
    "4349": 54,
    "4350": 504,
    "4351": 73,
    "4352": 42,
    "4353": 42,
    "4354": 42,
    "4355": 42,
    "4356": 73,
    "4357": 40,
    "4358": 390,
    "4359": 106,
    "4360": 143,
    "4361": 40,
    "4362": 247,
    "4363": 50,
    "4364": 58,
    "4365": 73,
    "4366": 40,
    "4367": 304,
    "4368": 40,
    "4369": 656,
    "4370": 102,
    "4371": 67,
    "4372": 333,
    "4373": 299,
    "4374": 738,
    "4375": 57,
    "4376": 65,
    "4377": 61,
    "4378": 57,
    "4379": 146,
    "4380": 82,
    "4381": 101,
    "4382": 243,
    "4383": 146,
    "4384": 549,
    "4385": 72,
    "4386": 168,
    "4387": 72,
    "4388": 82,
    "4389": 116,
    "4390": 78,
    "4391": 117,
    "4392": 599,
    "4393": 71,
    "4394": 72,
    "4395": 621,
    "4396": 72,
    "4397": 155,
    "4398": 82,
    "4399": 456,
    "4400": 889,
    "4401": 70,
    "4402": 72,
    "4403": 82,
    "4404": 96,
    "4405": 72,
    "4406": 73,
    "4407": 192,
    "4408": 72,
    "4409": 72,
    "4410": 72,
    "4411": 477,
    "4412": 76,
    "4413": 118,
    "4414": 72,
    "4415": 76,
    "4416": 78,
    "4417": 76,
    "4418": 146,
    "4419": 76,
    "4420": 329,
    "4421": 144,
    "4422": 99,
    "4423": 70,
    "4424": 76,
    "4425": 96,
    "4426": 173,
    "4427": 456,
    "4428": 610,
    "4429": 78,
    "4430": 354,
    "4431": 72,
    "4432": 764,
    "4433": 519,
    "4434": 80,
    "4435": 543,
    "4436": 72,
    "4437": 468,
    "4438": 75,
    "4439": 72,
    "4440": 72,
    "4441": 146,
    "4442": 147,
    "4443": 72,
    "4444": 72,
    "4445": 72,
    "4446": 128,
    "4447": 200,
    "4448": 497,
    "4449": 351,
    "4450": 226,
    "4451": 128,
    "4452": 129,
    "4453": 128,
    "4454": 129,
    "4455": 128,
    "4456": 555,
    "4457": 323,
    "4458": 84,
    "4459": 83,
    "4460": 103,
    "4461": 632,
    "4462": 81,
    "4463": 81,
    "4464": 78,
    "4465": 166,
    "4466": 171,
    "4467": 72,
    "4468": 144,
    "4469": 72,
    "4470": 149,
    "4471": 179,
    "4472": 277,
    "4473": 72,
    "4474": 73,
    "4475": 332,
    "4476": 72,
    "4477": 375,
    "4478": 209,
    "4479": 254,
    "4480": 209,
    "4481": 320,
    "4482": 326,
    "4483": 73,
    "4484": 101,
    "4485": 345,
    "4486": 75,
    "4487": 72,
    "4488": 72,
    "4489": 101,
    "4490": 72,
    "4491": 886,
    "4492": 477,
    "4493": 102,
    "4494": 301,
    "4495": 221,
    "4496": 515,
    "4497": 319,
    "4498": 102,
    "4499": 38,
    "4500": 72,
    "4501": 38,
    "4502": 38,
    "4503": 72,
    "4504": 160,
    "4505": 126,
    "4506": 126,
    "4507": 72,
    "4508": 124,
    "4509": 127,
    "4510": 253,
    "4511": 383,
    "4512": 164,
    "4513": 116,
    "4514": 261,
    "4515": 225,
    "4516": 74,
    "4517": 149,
    "4518": 153,
    "4519": 401,
    "4520": 328,
    "4521": 312,
    "4522": 118,
    "4523": 154,
    "4524": 72,
    "4525": 72,
    "4526": 144,
    "4527": 146,
    "4528": 72,
    "4529": 72,
    "4530": 180,
    "4531": 72,
    "4532": 184,
    "4533": 76,
    "4534": 182,
    "4535": 72,
    "4536": 178,
    "4537": 196,
    "4538": 85,
    "4539": 74,
    "4540": 72,
    "4541": 126,
    "4542": 72,
    "4543": 322,
    "4544": 72,
    "4545": 72,
    "4546": 72,
    "4547": 72,
    "4548": 72,
    "4549": 82,
    "4550": 248,
    "4551": 72,
    "4552": 755,
    "4553": 800,
    "4554": 202,
    "4555": 70,
    "4556": 74,
    "4557": 72,
    "4558": 72,
    "4559": 317,
    "4560": 130,
    "4561": 90,
    "4562": 72,
    "4563": 288,
    "4564": 74,
    "4565": 76,
    "4566": 74,
    "4567": 82,
    "4568": 74,
    "4569": 74,
    "4570": 82,
    "4571": 74,
    "4572": 82,
    "4573": 82,
    "4574": 74,
    "4575": 70,
    "4576": 70,
    "4577": 70,
    "4578": 70,
    "4579": 90,
    "4580": 90,
    "4581": 90,
    "4582": 90,
    "4583": 116,
    "4584": 70,
    "4585": 72,
    "4586": 70,
    "4587": 70,
    "4588": 90,
    "4589": 70,
    "4590": 119,
    "4591": 90,
    "4592": 74,
    "4593": 74,
    "4594": 74,
    "4595": 72,
    "4596": 73,
    "4597": 118,
    "4598": 146,
    "4599": 74,
    "4600": 167,
    "4601": 150,
    "4602": 82,
    "4603": 78,
    "4604": 82,
    "4605": 80,
    "4606": 127,
    "4607": 72,
    "4608": 72,
    "4609": 72,
    "4610": 72,
    "4611": 72,
    "4612": 72,
    "4613": 72,
    "4614": 72,
    "4615": 72,
    "4616": 72,
    "4617": 74,
    "4618": 72,
    "4619": 72,
    "4620": 72,
    "4621": 144,
    "4622": 74,
    "4623": 127,
    "4624": 74,
    "4625": 75,
    "4626": 118,
    "4627": 73,
    "4628": 127,
    "4629": 127,
    "4630": 73,
    "4631": 73,
    "4632": 73,
    "4633": 73,
    "4634": 127,
    "4635": 73,
    "4636": 75,
    "4637": 72,
    "4638": 72,
    "4639": 127,
    "4640": 72,
    "4641": 127,
    "4642": 72,
    "4643": 72,
    "4644": 74,
    "4645": 72,
    "4646": 128,
    "4647": 72,
    "4648": 74,
    "4649": 74,
    "4650": 200,
    "4651": 74,
    "4652": 72,
    "4653": 201,
    "4654": 74,
    "4655": 72,
    "4656": 72,
    "4657": 74,
    "4658": 72,
    "4659": 74,
    "4660": 74,
    "4661": 74,
    "4662": 128,
    "4663": 74,
    "4664": 72,
    "4665": 74,
    "4666": 72,
    "4667": 74,
    "4668": 72,
    "4669": 72,
    "4670": 72,
    "4671": 72,
    "4672": 128,
    "4673": 72,
    "4674": 128,
    "4675": 128,
    "4676": 72,
    "4677": 74,
    "4678": 74,
    "4679": 72,
    "4680": 72,
    "4681": 74,
    "4682": 74,
    "4683": 74,
    "4684": 72,
    "4685": 74,
    "4686": 72,
    "4687": 74,
    "4688": 72,
    "4689": 73,
    "4690": 210,
    "4691": 73,
    "4692": 73,
    "4693": 75,
    "4694": 458,
    "4695": 72,
    "4696": 201,
    "4697": 74,
    "4698": 74,
    "4699": 72,
    "4700": 72,
    "4701": 72,
    "4702": 148,
    "4703": 74,
    "4704": 72,
    "4705": 72,
    "4706": 72,
    "4707": 150,
    "4708": 192,
    "4709": 318,
    "4710": 74,
    "4711": 74,
    "4712": 72,
    "4713": 98,
    "4714": 72,
    "4715": 72,
    "4716": 224,
    "4717": 122,
    "4718": 83,
    "4719": 122,
    "4720": 123,
    "4721": 122,
    "4722": 122,
    "4723": 326,
    "4724": 209,
    "4725": 553,
    "4726": 159,
    "4727": 73,
    "4728": 127,
    "4729": 73,
    "4730": 73,
    "4731": 469,
    "4732": 123,
    "4733": 73,
    "4734": 201,
    "4735": 133,
    "4736": 532,
    "4737": 75,
    "4738": 79,
    "4739": 132,
    "4740": 73,
    "4741": 147,
    "4742": 293,
    "4743": 510,
    "4744": 73,
    "4745": 462,
    "4746": 74,
    "4747": 73,
    "4748": 129,
    "4749": 73,
    "4750": 431,
    "4751": 305,
    "4752": 73,
    "4753": 152,
    "4754": 14,
    "4755": 73,
    "4756": 220,
    "4757": 113,
    "4758": 201,
    "4759": 145,
    "4760": 73,
    "4761": 73,
    "4762": 253,
    "4763": 73,
    "4764": 12,
    "4765": 144,
    "4766": 232,
    "4767": 130,
    "4768": 81,
    "4769": 154,
    "4770": 81,
    "4771": 246,
    "4772": 152,
    "4773": 81,
    "4774": 83,
    "4775": 81,
    "4776": 81,
    "4777": 81,
    "4778": 54,
    "4779": 48,
    "4780": 115,
    "4781": 145,
    "4782": 73,
    "4783": 46,
    "4784": 46,
    "4785": 73,
    "4786": 147,
    "4787": 44,
    "4788": 260,
    "4789": 114,
    "4790": 51,
    "4791": 177,
    "4792": 114,
    "4793": 103,
    "4794": 80,
    "4795": 322,
    "4796": 82,
    "4797": 82,
    "4798": 93,
    "4799": 135,
    "4800": 93,
    "4801": 73,
    "4802": 73,
    "4803": 468,
    "4804": 81,
    "4805": 73,
    "4806": 115,
    "4807": 91,
    "4808": 66,
    "4809": 110,
    "4810": 76,
    "4811": 93,
    "4812": 150,
    "4813": 84,
    "4814": 74,
    "4815": 83,
    "4816": 192,
    "4817": 76,
    "4818": 83,
    "4819": 110,
    "4820": 162,
    "4821": 124,
    "4822": 38,
    "4823": 40,
    "4824": 75,
    "4825": 75,
    "4826": 40,
    "4827": 115,
    "4828": 76,
    "4829": 124,
    "4830": 78,
    "4831": 42,
    "4832": 471,
    "4833": 127,
    "4834": 72,
    "4835": 74,
    "4836": 75,
    "4837": 128,
    "4838": 103,
    "4839": 91,
    "4840": 101,
    "4841": 74,
    "4842": 103,
    "4843": 89,
    "4844": 105,
    "4845": 74,
    "4846": 75,
    "4847": 181,
    "4848": 75,
    "4849": 74,
    "4850": 79,
    "4851": 38,
    "4852": 83,
    "4853": 36,
    "4854": 164,
    "4855": 108,
    "4856": 38,
    "4857": 76,
    "4858": 34,
    "4859": 94,
    "4860": 72,
    "4861": 72,
    "4862": 72,
    "4863": 72,
    "4864": 72,
    "4865": 72,
    "4866": 72,
    "4867": 72,
    "4868": 72,
    "4869": 72,
    "4870": 247,
    "4871": 101,
    "4872": 84,
    "4873": 163,
    "4874": 72,
    "4875": 72,
    "4876": 123,
    "4877": 123,
    "4878": 95,
    "4879": 106,
    "4880": 95,
    "4881": 123,
    "4882": 123,
    "4883": 78,
    "4884": 77,
    "4885": 150,
    "4886": 73,
    "4887": 76,
    "4888": 72,
    "4889": 73,
    "4890": 78,
    "4891": 181,
    "4892": 156,
    "4893": 76,
    "4894": 74,
    "4895": 72,
    "4896": 73,
    "4897": 78,
    "4898": 76,
    "4899": 110,
    "4900": 82,
    "4901": 82,
    "4902": 110,
    "4903": 140,
    "4904": 66,
    "4905": 76,
    "4906": 74,
    "4907": 76,
    "4908": 309,
    "4909": 73,
    "4910": 106,
    "4911": 150,
    "4912": 60,
    "4913": 202,
    "4914": 137,
    "4915": 136,
    "4916": 136,
    "4917": 73,
    "4918": 93,
    "4919": 51,
    "4920": 74,
    "4921": 74,
    "4922": 129,
    "4923": 149,
    "4924": 178,
    "4925": 75,
    "4926": 105,
    "4927": 85,
    "4928": 145,
    "4929": 74,
    "4930": 74,
    "4931": 105,
    "4932": 40,
    "4933": 173,
    "4934": 360,
    "4935": 72,
    "4936": 122,
    "4937": 202,
    "4938": 126,
    "4939": 576,
    "4940": 122,
    "4941": 129,
    "4942": 72,
    "4943": 128,
    "4944": 72,
    "4945": 72,
    "4946": 128,
    "4947": 128,
    "4948": 72,
    "4949": 133,
    "4950": 159,
    "4951": 157,
    "4952": 72,
    "4953": 73,
    "4954": 146,
    "4955": 76,
    "4956": 201,
    "4957": 72,
    "4958": 72,
    "4959": 72,
    "4960": 192,
    "4961": 74,
    "4962": 74,
    "4963": 107,
    "4964": 148,
    "4965": 72,
    "4966": 74,
    "4967": 8497,
    "4968": 184,
    "4969": 146,
    "4970": 72,
    "4971": 167,
    "4972": 219,
    "4973": 87,
    "4974": 85,
    "4975": 174,
    "4976": 167,
    "4977": 129,
    "4978": 200,
    "4979": 72,
    "4980": 73,
    "4981": 128,
    "4982": 574,
    "4983": 76,
    "4984": 75,
    "4985": 574,
    "4986": 78,
    "4987": 78,
    "4988": 78,
    "4989": 144,
    "4990": 72,
    "4991": 280,
    "4992": 76,
    "4993": 82,
    "4994": 88,
    "4995": 106,
    "4996": 128,
    "4997": 128,
    "4998": 128,
    "4999": 79,
    "5000": 73,
    "5001": 73,
    "5002": 240,
    "5003": 73,
    "5004": 73,
    "5005": 199,
    "5006": 128,
    "5007": 72,
    "5008": 72,
    "5009": 128,
    "5010": 72,
    "5011": 128,
    "5012": 128,
    "5013": 72,
    "5014": 72,
    "5015": 129,
    "5016": 128,
    "5017": 128,
    "5018": 72,
    "5019": 72,
    "5020": 128,
    "5021": 128,
    "5022": 128,
    "5023": 72,
    "5024": 76,
    "5025": 128,
    "5026": 78,
    "5027": 76,
    "5028": 76,
    "5029": 76,
    "5030": 76,
    "5031": 79,
    "5032": 72,
    "5033": 354,
    "5034": 108,
    "5035": 186,
    "5036": 110,
    "5037": 1081,
    "5038": 98,
    "5039": 200,
    "5040": 72,
    "5041": 128,
    "5042": 72,
    "5043": 72,
    "5044": 72,
    "5045": 72,
    "5046": 128,
    "5047": 72,
    "5048": 72,
    "5049": 128,
    "5050": 128,
    "5051": 381,
    "5052": 128,
    "5053": 72,
    "5054": 128,
    "5055": 72,
    "5056": 72,
    "5057": 72,
    "5058": 128,
    "5059": 72,
    "5060": 113,
    "5061": 72,
    "5062": 72,
    "5063": 80,
    "5064": 80,
    "5065": 115,
    "5066": 73,
    "5067": 73,
    "5068": 72,
    "5069": 72,
    "5070": 208,
    "5071": 92,
    "5072": 164,
    "5073": 78,
    "5074": 72,
    "5075": 72,
    "5076": 110,
    "5077": 119,
    "5078": 72,
    "5079": 1,
    "5080": 571,
    "5081": 217,
    "5082": 217,
    "5083": 491,
    "5084": 863,
    "5085": 654,
    "5086": 547,
    "5087": 336,
    "5088": 349,
    "5089": 1,
    "5090": 1,
    "5091": 70,
    "5092": 1307,
    "5093": 216,
    "5094": 413,
    "5095": 1,
    "5096": 1,
    "5097": 1,
    "5098": 1,
    "5099": 17,
    "5100": 1,
    "5101": 1,
    "5102": 1,
    "5103": 1,
    "5104": 1,
    "5105": 17,
    "5106": 1,
    "5107": 1,
    "5108": 3,
    "5109": 1,
    "5110": 7,
    "5111": 8,
    "5112": 3,
    "5113": 1,
    "5114": 1,
    "5115": 2,
    "5116": 1,
    "5117": 2,
    "5118": 2,
    "5119": 3,
    "5120": 1,
    "5121": 2,
    "5122": 2,
    "5123": 3,
    "5124": 163,
    "5125": 4,
    "5126": 2,
    "5127": 8,
    "5128": 1,
    "5129": 2,
    "5130": 3,
    "5131": 1,
    "5132": 1,
    "5133": 1,
    "5134": 1,
    "5135": 2,
    "5136": 1,
    "5137": 3,
    "5138": 4,
    "5139": 8,
    "5140": 1,
    "5141": 1,
    "5142": 4,
    "5143": 1,
    "5144": 12,
    "5145": 1,
    "5146": 1,
    "5147": 1,
    "5148": 1,
    "5149": 1,
    "5150": 1,
    "5151": 5,
    "5152": 2,
    "5153": 2,
    "5154": 3,
    "5155": 1,
    "5156": 1,
    "5157": 3,
    "5158": 2,
    "5159": 1,
    "5160": 1,
    "5161": 2,
    "5162": 1,
    "5163": 2,
    "5164": 1,
    "5165": 3,
    "5166": 1,
    "5167": 1,
    "5168": 6,
    "5169": 1,
    "5170": 2,
    "5171": 1,
    "5172": 3,
    "5173": 1,
    "5174": 3,
    "5175": 1,
    "5176": 1,
    "5177": 4,
    "5178": 2,
    "5179": 1,
    "5180": 1,
    "5181": 1,
    "5182": 2,
    "5183": 1,
    "5184": 3,
    "5185": 3,
    "5186": 1,
    "5187": 2,
    "5188": 39,
    "5189": 1,
    "5190": 3,
    "5191": 3,
    "5192": 2,
    "5193": 3,
    "5194": 1,
    "5195": 6,
    "5196": 3,
    "5197": 3,
    "5198": 4,
    "5199": 3,
    "5200": 2,
    "5201": 1,
    "5202": 1,
    "5203": 1,
    "5204": 2,
    "5205": 2,
    "5206": 3,
    "5207": 2,
    "5208": 3,
    "5209": 1,
    "5210": 2,
    "5211": 1,
    "5212": 1,
    "5213": 1,
    "5214": 2,
    "5215": 2,
    "5216": 5,
    "5217": 1,
    "5218": 2,
    "5219": 1,
    "5220": 1,
    "5221": 1,
    "5222": 1,
    "5223": 1,
    "5224": 1,
    "5225": 1,
    "5226": 1,
    "5227": 2,
    "5228": 1,
    "5229": 1,
    "5230": 1,
    "5231": 1,
    "5232": 1,
    "5233": 1,
    "5234": 1,
    "5235": 3,
    "5236": 3,
    "5237": 3,
    "5238": 1,
    "5239": 2,
    "5240": 1,
    "5241": 1,
    "5242": 3,
    "5243": 1,
    "5244": 2,
    "5245": 2,
    "5246": 2,
    "5247": 2,
    "5248": 1,
    "5249": 1,
    "5250": 1,
    "5251": 1,
    "5252": 1,
    "5253": 1,
    "5254": 3,
    "5255": 1,
    "5256": 2,
    "5257": 2,
    "5258": 2,
    "5259": 1,
    "5260": 1,
    "5261": 1,
    "5262": 3,
    "5263": 1,
    "5264": 1,
    "5265": 3,
    "5266": 1,
    "5267": 1,
    "5268": 1,
    "5269": 1,
    "5270": 2,
    "5271": 1,
    "5272": 1,
    "5273": 1,
    "5274": 1,
    "5275": 1,
    "5276": 1,
    "5277": 1,
    "5278": 1,
    "5279": 2,
    "5280": 1,
    "5281": 2,
    "5282": 1,
    "5283": 2,
    "5284": 2,
    "5285": 1,
    "5286": 1,
    "5287": 1,
    "5288": 1,
    "5289": 1,
    "5290": 2,
    "5291": 1,
    "5292": 1,
    "5293": 1,
    "5294": 1,
    "5295": 1,
    "5296": 2,
    "5297": 1,
    "5298": 4,
    "5299": 1,
    "5300": 1,
    "5301": 1,
    "5302": 1,
    "5303": 1,
    "5304": 8,
    "5305": 1,
    "5306": 1,
    "5307": 1,
    "5308": 3,
    "5309": 1,
    "5310": 3,
    "5311": 1,
    "5312": 1,
    "5313": 2,
    "5314": 1,
    "5315": 1,
    "5316": 1,
    "5317": 1,
    "5318": 1,
    "5319": 1,
    "5320": 1,
    "5321": 1,
    "5322": 1,
    "5323": 1,
    "5324": 1,
    "5325": 4,
    "5326": 1,
    "5327": 19,
    "5328": 3,
    "5329": 1,
    "5330": 1,
    "5331": 1,
    "5332": 1,
    "5333": 1,
    "5334": 1,
    "5335": 1,
    "5336": 1,
    "5337": 1,
    "5338": 1,
    "5339": 1,
    "5340": 1,
    "5341": 1,
    "5342": 1,
    "5343": 1,
    "5344": 1,
    "5345": 1,
    "5346": 750,
    "5347": 1,
    "5348": 2,
    "5349": 1,
    "5350": 1,
    "5351": 1,
    "5352": 1,
    "5353": 1,
    "5354": 1,
    "5355": 1,
    "5356": 1,
    "5357": 1,
    "5358": 1,
    "5359": 1,
    "5360": 1,
    "5361": 1,
    "5362": 1,
    "5363": 1,
    "5364": 1,
    "5365": 1,
    "5366": 1,
    "5367": 1,
    "5368": 1,
    "5369": 1,
    "5370": 2,
    "5371": 2,
    "5372": 1,
    "5373": 1,
    "5374": 1,
    "5375": 1,
    "5376": 3,
    "5377": 2,
    "5378": 1,
    "5379": 1,
    "5380": 1,
    "5381": 4,
    "5382": 1,
    "5383": 1,
    "5384": 1,
    "5385": 2,
    "5386": 1,
    "5387": 1,
    "5388": 1,
    "5389": 1,
    "5390": 1,
    "5391": 1,
    "5392": 1,
    "5393": 1,
    "5394": 1,
    "5395": 1,
    "5396": 1,
    "5397": 1,
    "5398": 1,
    "5399": 1,
    "5400": 2,
    "5401": 1,
    "5402": 1,
    "5403": 1,
    "5404": 1,
    "5405": 1,
    "5406": 1,
    "5407": 2,
    "5408": 1,
    "5409": 1,
    "5410": 1,
    "5411": 1,
    "5412": 1,
    "5413": 1,
    "5414": 1,
    "5415": 2,
    "5416": 2,
    "5417": 1,
    "5418": 1,
    "5419": 1,
    "5420": 1,
    "5421": 1,
    "5422": 1,
    "5423": 1,
    "5424": 1,
    "5425": 2,
    "5426": 2,
    "5427": 1,
    "5428": 515,
    "5429": 2,
    "5430": 2,
    "5431": 2,
    "5432": 1,
    "5433": 1,
    "5434": 2,
    "5435": 1,
    "5436": 1,
    "5437": 1,
    "5438": 1,
    "5439": 1,
    "5440": 1,
    "5441": 3,
    "5442": 3,
    "5443": 52,
    "5444": 41,
    "5445": 40,
    "5446": 40,
    "5447": 40,
    "5448": 45,
    "5449": 42,
    "5450": 45,
    "5451": 8,
    "5452": 6,
    "5453": 6,
    "5454": 6,
    "5455": 4,
    "5456": 1,
    "5457": 1,
    "5458": 1,
    "5459": 85,
    "5460": 46,
    "5461": 46,
    "5462": 46,
    "5463": 15,
    "5464": 92,
    "5465": 45,
    "5466": 45,
    "5467": 45,
    "5468": 45,
    "5469": 45,
    "5470": 45,
    "5471": 45,
    "5472": 45,
    "5473": 45,
    "5474": 45,
    "5475": 82,
    "5476": 45,
    "5477": 45,
    "5478": 45,
    "5479": 45,
    "5480": 45,
    "5481": 44,
    "5482": 44,
    "5483": 41,
    "5484": 733,
    "5485": 2,
    "5486": 2,
    "5487": 2,
    "5488": 79,
    "5489": 2,
    "5490": 2,
    "5491": 2,
    "5492": 2,
    "5493": 2,
    "5494": 2,
    "5495": 2,
    "5496": 41,
    "5497": 2,
    "5498": 2,
    "5499": 4,
    "5500": 2,
    "5501": 2,
    "5502": 2,
    "5503": 2,
    "5504": 2,
    "5505": 4,
    "5506": 2,
    "5507": 2,
    "5508": 2,
    "5509": 2,
    "5510": 2,
    "5511": 2,
    "5512": 1,
    "5513": 1,
    "5514": 993,
    "5515": 915,
    "5516": 993,
    "5517": 39016,
    "5518": 1,
    "5519": 1,
    "5520": 1,
    "5521": 2882,
    "5522": 87,
    "5523": 456,
    "5524": 3026,
    "5525": 248,
    "5526": 1141,
    "5527": 3026,
    "5528": 38,
    "5529": 39,
    "5530": 92,
    "5531": 36,
    "5532": 36,
    "5533": 38,
    "5534": 54,
    "5535": 50,
    "5536": 38,
    "5537": 38,
    "5538": 38,
    "5539": 38,
    "5540": 38,
    "5541": 40,
    "5542": 77,
    "5543": 39,
    "5544": 39,
    "5545": 45,
    "5546": 45,
    "5547": 44,
    "5548": 28,
    "5549": 38,
    "5550": 38,
    "5551": 38,
    "5552": 38,
    "5553": 38,
    "5554": 43,
    "5555": 38,
    "5556": 38,
    "5557": 40,
    "5558": 38,
    "5559": 38,
    "5560": 38,
    "5561": 38,
    "5562": 38,
    "5563": 38,
    "5564": 38,
    "5565": 120,
    "5566": 38,
    "5567": 38,
    "5568": 38,
    "5569": 40,
    "5570": 38,
    "5571": 43,
    "5572": 78,
    "5573": 38,
    "5574": 53,
    "5575": 57,
    "5576": 57,
    "5577": 199,
    "5578": 1159,
    "5579": 8557,
    "5580": 57,
    "5581": 52,
    "5582": 3,
    "5583": 6,
    "5584": 18,
    "5585": 34,
    "5586": 26,
    "5587": 6,
    "5588": 12,
    "5589": 6,
    "5590": 4,
    "5591": 6,
    "5592": 4,
    "5593": 26,
    "5594": 10,
    "5595": 37,
    "5596": 4,
    "5597": 10,
    "5598": 26,
    "5599": 26,
    "5600": 10,
    "5601": 6,
    "5602": 6,
    "5603": 6,
    "5604": 4,
    "5605": 6,
    "5606": 10,
    "5607": 8,
    "5608": 8,
    "5609": 6,
    "5610": 26,
    "5611": 8,
    "5612": 839,
    "5613": 115,
    "5614": 64,
    "5615": 100,
    "5616": 88,
    "5617": 90,
    "5618": 88,
    "5619": 88,
    "5620": 88,
    "5621": 88,
    "5622": 88,
    "5623": 88,
    "5624": 37,
    "5625": 37,
    "5626": 36,
    "5627": 35,
    "5628": 36,
    "5629": 36,
    "5630": 37,
    "5631": 37,
    "5632": 83,
    "5633": 37,
    "5634": 52,
    "5635": 81,
    "5636": 81,
    "5637": 54,
    "5638": 82,
    "5639": 36,
    "5640": 36,
    "5641": 20,
    "5642": 20,
    "5643": 30,
    "5644": 30,
    "5645": 22,
    "5646": 22,
    "5647": 30,
    "5648": 20,
    "5649": 8,
    "5650": 4,
    "5651": 4,
    "5652": 4,
    "5653": 4,
    "5654": 4,
    "5655": 4,
    "5656": 773,
    "5657": 21,
    "5658": 25,
    "5659": 21,
    "5660": 2,
    "5661": 4,
    "5662": 4,
    "5663": 4,
    "5664": 4,
    "5665": 2,
    "5666": 2,
    "5667": 2,
    "5668": 2,
    "5669": 8,
    "5670": 12,
    "5671": 4,
    "5672": 8,
    "5673": 1,
    "5674": 3,
    "5675": 2,
    "5676": 6,
    "5677": 2,
    "5678": 2,
    "5679": 2,
    "5680": 2,
    "5681": 2,
    "5682": 2,
    "5683": 2,
    "5684": 2,
    "5685": 22,
    "5686": 2,
    "5687": 2,
    "5688": 2,
    "5689": 1,
    "5690": 1,
    "5691": 1,
    "5692": 1,
    "5693": 1,
    "5694": 1,
    "5695": 1,
    "5696": 1,
    "5697": 23,
    "5698": 1,
    "5699": 1,
    "5700": 960,
    "5701": 1,
    "5702": 105,
    "5703": 2,
    "5704": 1,
    "5705": 4,
    "5706": 2,
    "5707": 2,
    "5708": 2,
    "5709": 2,
    "5710": 2,
    "5711": 2,
    "5712": 2,
    "5713": 2,
    "5714": 3,
    "5715": 1,
    "5716": 3,
    "5717": 3,
    "5718": 3,
    "5719": 3,
    "5720": 1,
    "5721": 1,
    "5722": 1,
    "5723": 1,
    "5724": 1,
    "5725": 3,
    "5726": 3,
    "5727": 3,
    "5728": 3,
    "5729": 3,
    "5730": 3,
    "5731": 1,
    "5732": 1,
    "5733": 1,
    "5734": 3,
    "5735": 2,
    "5736": 1,
    "5737": 1,
    "5738": 1,
    "5739": 1,
    "5740": 1
  },
  "next_id": 5741,
  "doc_count": 56501,
  "vocab_size": 50000
}